{
  "version": "1.0",
  "truncation": null,
  "padding": null,
  "added_tokens": [
    {
      "id": 0,
      "content": "<pad>",
      "single_word": false,
      "lstrip": false,
      "rstrip": false,
      "normalized": false,
      "special": true
    },
    {
      "id": 1,
      "content": "<unk>",
      "single_word": false,
      "lstrip": false,
      "rstrip": false,
      "normalized": false,
      "special": true
    },
    {
      "id": 2,
      "content": "<bos>",
      "single_word": false,
      "lstrip": false,
      "rstrip": false,
      "normalized": false,
      "special": true
    },
    {
      "id": 3,
      "content": "<eos>",
      "single_word": false,
      "lstrip": false,
      "rstrip": false,
      "normalized": false,
      "special": true
    },
    {
      "id": 4,
      "content": "<|endoftext|>",
      "single_word": false,
      "lstrip": false,
      "rstrip": false,
      "normalized": false,
      "special": true
    },
    {
      "id": 5,
      "content": "<|newline|>",
      "single_word": false,
      "lstrip": false,
      "rstrip": false,
      "normalized": false,
      "special": true
    },
    {
      "id": 6,
      "content": "<|tab|>",
      "single_word": false,
      "lstrip": false,
      "rstrip": false,
      "normalized": false,
      "special": true
    }
  ],
  "normalizer": {
    "type": "Sequence",
    "normalizers": [
      {
        "type": "NFD"
      },
      {
        "type": "Lowercase"
      },
      {
        "type": "StripAccents"
      }
    ]
  },
  "pre_tokenizer": {
    "type": "Whitespace"
  },
  "post_processor": {
    "type": "TemplateProcessing",
    "single": [
      {
        "SpecialToken": {
          "id": "<bos>",
          "type_id": 0
        }
      },
      {
        "Sequence": {
          "id": "A",
          "type_id": 0
        }
      },
      {
        "SpecialToken": {
          "id": "<eos>",
          "type_id": 0
        }
      }
    ],
    "pair": [
      {
        "Sequence": {
          "id": "A",
          "type_id": 0
        }
      },
      {
        "Sequence": {
          "id": "B",
          "type_id": 1
        }
      }
    ],
    "special_tokens": {
      "<bos>": {
        "id": "<bos>",
        "ids": [
          2
        ],
        "tokens": [
          "<bos>"
        ]
      },
      "<eos>": {
        "id": "<eos>",
        "ids": [
          3
        ],
        "tokens": [
          "<eos>"
        ]
      },
      "<|endoftext|>": {
        "id": "<|endoftext|>",
        "ids": [
          4
        ],
        "tokens": [
          "<|endoftext|>"
        ]
      }
    }
  },
  "decoder": null,
  "model": {
    "type": "BPE",
    "dropout": null,
    "unk_token": "<unk>",
    "continuing_subword_prefix": "",
    "end_of_word_suffix": "</w>",
    "fuse_unk": false,
    "byte_fallback": false,
    "ignore_merges": false,
    "vocab": {
      "<pad>": 0,
      "<unk>": 1,
      "<bos>": 2,
      "<eos>": 3,
      "<|endoftext|>": 4,
      "<|newline|>": 5,
      "<|tab|>": 6,
      "!": 7,
      "\"": 8,
      "#": 9,
      "$": 10,
      "%": 11,
      "&": 12,
      "'": 13,
      "(": 14,
      ")": 15,
      "*": 16,
      "+": 17,
      ",": 18,
      "-": 19,
      ".": 20,
      "/": 21,
      "0": 22,
      "1": 23,
      "2": 24,
      "3": 25,
      "4": 26,
      "5": 27,
      "6": 28,
      "7": 29,
      "8": 30,
      "9": 31,
      ":": 32,
      ";": 33,
      "<": 34,
      "=": 35,
      ">": 36,
      "?": 37,
      "@": 38,
      "[": 39,
      "\\": 40,
      "]": 41,
      "^": 42,
      "_": 43,
      "`": 44,
      "a": 45,
      "b": 46,
      "c": 47,
      "d": 48,
      "e": 49,
      "f": 50,
      "g": 51,
      "h": 52,
      "i": 53,
      "j": 54,
      "k": 55,
      "l": 56,
      "m": 57,
      "n": 58,
      "o": 59,
      "p": 60,
      "q": 61,
      "r": 62,
      "s": 63,
      "t": 64,
      "u": 65,
      "v": 66,
      "w": 67,
      "x": 68,
      "y": 69,
      "z": 70,
      "|": 71,
      "}": 72,
      "~": 73,
      "¢": 74,
      "£": 75,
      "¤": 76,
      "¦": 77,
      "§": 78,
      "¨": 79,
      "©": 80,
      "«": 81,
      "®": 82,
      "¯": 83,
      "°": 84,
      "±": 85,
      "²": 86,
      "³": 87,
      "´": 88,
      "µ": 89,
      "·": 90,
      "¸": 91,
      "¹": 92,
      "º": 93,
      "»": 94,
      "¼": 95,
      "½": 96,
      "¾": 97,
      "¿": 98,
      "×": 99,
      "ß": 100,
      "æ": 101,
      "ð": 102,
      "ø": 103,
      "þ": 104,
      "ı": 105,
      "ł": 106,
      "œ": 107,
      "ƒ": 108,
      "ɔ": 109,
      "ə": 110,
      "ɛ": 111,
      "ɣ": 112,
      "ɾ": 113,
      "ʁ": 114,
      "ʃ": 115,
      "ʻ": 116,
      "ʼ": 117,
      "ˇ": 118,
      "ˈ": 119,
      "˚": 120,
      "˜": 121,
      "α": 122,
      "β": 123,
      "γ": 124,
      "δ": 125,
      "ε": 126,
      "η": 127,
      "θ": 128,
      "ι": 129,
      "κ": 130,
      "λ": 131,
      "μ": 132,
      "ν": 133,
      "ξ": 134,
      "ο": 135,
      "π": 136,
      "ρ": 137,
      "ς": 138,
      "σ": 139,
      "τ": 140,
      "υ": 141,
      "φ": 142,
      "χ": 143,
      "ψ": 144,
      "ω": 145,
      "ϛ": 146,
      "а": 147,
      "б": 148,
      "в": 149,
      "г": 150,
      "д": 151,
      "е": 152,
      "ж": 153,
      "з": 154,
      "и": 155,
      "к": 156,
      "л": 157,
      "м": 158,
      "н": 159,
      "о": 160,
      "п": 161,
      "р": 162,
      "с": 163,
      "т": 164,
      "у": 165,
      "ф": 166,
      "ы": 167,
      "ь": 168,
      "э": 169,
      "я": 170,
      "־": 171,
      "א": 172,
      "ב": 173,
      "ג": 174,
      "ד": 175,
      "ה": 176,
      "ו": 177,
      "ז": 178,
      "ח": 179,
      "ט": 180,
      "י": 181,
      "ך": 182,
      "כ": 183,
      "ל": 184,
      "ם": 185,
      "מ": 186,
      "ן": 187,
      "נ": 188,
      "ס": 189,
      "ע": 190,
      "פ": 191,
      "ץ": 192,
      "צ": 193,
      "ק": 194,
      "ר": 195,
      "ש": 196,
      "ת": 197,
      "،": 198,
      "ا": 199,
      "ج": 200,
      "د": 201,
      "ر": 202,
      "س": 203,
      "ف": 204,
      "ك": 205,
      "ل": 206,
      "م": 207,
      "ن": 208,
      "ه": 209,
      "و": 210,
      "ي": 211,
      "ی": 212,
      "ง": 213,
      "จ": 214,
      "ด": 215,
      "ท": 216,
      "บ": 217,
      "ม": 218,
      "ย": 219,
      "ร": 220,
      "ศ": 221,
      "ส": 222,
      "อ": 223,
      "า": 224,
      "เ": 225,
      "ᄂ": 226,
      "ᄋ": 227,
      "ᅧ": 228,
      "ᅯ": 229,
      "ᅵ": 230,
      "ᆫ": 231,
      "ᆯ": 232,
      "‐": 233,
      "‑": 234,
      "–": 235,
      "—": 236,
      "―": 237,
      "‘": 238,
      "’": 239,
      "‚": 240,
      "“": 241,
      "”": 242,
      "„": 243,
      "‟": 244,
      "†": 245,
      "•": 246,
      "…": 247,
      "‧": 248,
      "′": 249,
      "″": 250,
      "‹": 251,
      "›": 252,
      "⁄": 253,
      "₤": 254,
      "€": 255,
      "™": 256,
      "⅓": 257,
      "⅔": 258,
      "←": 259,
      "↑": 260,
      "→": 261,
      "↵": 262,
      "⇒": 263,
      "∆": 264,
      "−": 265,
      "∙": 266,
      "≈": 267,
      "≤": 268,
      "≥": 269,
      "⌃": 270,
      "□": 271,
      "●": 272,
      "♥": 273,
      "♭": 274,
      "♯": 275,
      "⚑": 276,
      "❤": 277,
      "「": 278,
      "」": 279,
      "し": 280,
      "ク": 281,
      "ケ": 282,
      "セ": 283,
      "タ": 284,
      "ッ": 285,
      "ハ": 286,
      "マ": 287,
      "ム": 288,
      "ン": 289,
      "ー": 290,
      "人": 291,
      "促": 292,
      "县": 293,
      "宗": 294,
      "宜": 295,
      "岩": 296,
      "徹": 297,
      "戸": 298,
      "方": 299,
      "樺": 300,
      "氏": 301,
      "江": 302,
      "浪": 303,
      "渋": 304,
      "祠": 305,
      "縣": 306,
      "蒸": 307,
      "製": 308,
      "谷": 309,
      "長": 310,
      "长": 311,
      "ﬁ": 312,
      "�": 313,
      "🔎": 314,
      "🙂": 315,
      "g</w>": 316,
      "n</w>": 317,
      "s</w>": 318,
      "i</w>": 319,
      "e</w>": 320,
      "a</w>": 321,
      "r</w>": 322,
      "y</w>": 323,
      "d</w>": 324,
      "l</w>": 325,
      "c</w>": 326,
      "9</w>": 327,
      "h</w>": 328,
      "t</w>": 329,
      "u</w>": 330,
      "5</w>": 331,
      "o</w>": 332,
      "у</w>": 333,
      "m</w>": 334,
      "v</w>": 335,
      "”</w>": 336,
      "f</w>": 337,
      "k</w>": 338,
      "7</w>": 339,
      "1</w>": 340,
      "3</w>": 341,
      ".</w>": 342,
      "6</w>": 343,
      "p</w>": 344,
      "z</w>": 345,
      "8</w>": 346,
      "x</w>": 347,
      "j</w>": 348,
      "º</w>": 349,
      "b</w>": 350,
      "w</w>": 351,
      ",</w>": 352,
      "\"</w>": 353,
      "2</w>": 354,
      "0</w>": 355,
      "|</w>": 356,
      "˜</w>": 357,
      "县</w>": 358,
      "#</w>": 359,
      "ה</w>": 360,
      "ם</w>": 361,
      ":</w>": 362,
      "4</w>": 363,
      "_</w>": 364,
      "ø</w>": 365,
      ";</w>": 366,
      "ف</w>": 367,
      "ω</w>": 368,
      "/</w>": 369,
      "ι</w>": 370,
      "'</w>": 371,
      "q</w>": 372,
      "-</w>": 373,
      "§</w>": 374,
      "ר</w>": 375,
      "<</w>": 376,
      "*</w>": 377,
      "[</w>": 378,
      "´</w>": 379,
      "·</w>": 380,
      "]</w>": 381,
      "♥</w>": 382,
      "ν</w>": 383,
      ")</w>": 384,
      "%</w>": 385,
      "(</w>": 386,
      "❤</w>": 387,
      "η</w>": 388,
      "я</w>": 389,
      "א</w>": 390,
      "י</w>": 391,
      "\\</w>": 392,
      "—</w>": 393,
      "+</w>": 394,
      "ß</w>": 395,
      "æ</w>": 396,
      "`</w>": 397,
      "长</w>": 398,
      "ץ</w>": 399,
      "!</w>": 400,
      "ע</w>": 401,
      "€</w>": 402,
      "ל</w>": 403,
      "祠</w>": 404,
      "‘</w>": 405,
      "?</w>": 406,
      "φ</w>": 407,
      "}</w>": 408,
      "–</w>": 409,
      "½</w>": 410,
      "…</w>": 411,
      "“</w>": 412,
      "ך</w>": 413,
      "þ</w>": 414,
      "$</w>": 415,
      "″</w>": 416,
      "ו</w>": 417,
      "ย</w>": 418,
      "ן</w>": 419,
      "ı</w>": 420,
      "σ</w>": 421,
      "ρ</w>": 422,
      "></w>": 423,
      "ς</w>": 424,
      "≈</w>": 425,
      "’</w>": 426,
      "¿</w>": 427,
      "•</w>": 428,
      "―</w>": 429,
      "‑</w>": 430,
      "¢</w>": 431,
      "¼</w>": 432,
      "↑</w>": 433,
      "™</w>": 434,
      "ד</w>": 435,
      "ט</w>": 436,
      "з</w>": 437,
      "ת</w>": 438,
      "¦</w>": 439,
      "α</w>": 440,
      "ɛ</w>": 441,
      "ə</w>": 442,
      "徹</w>": 443,
      "&</w>": 444,
      "縣</w>": 445,
      "�</w>": 446,
      "¾</w>": 447,
      "^</w>": 448,
      "=</w>": 449,
      "製</w>": 450,
      "₤</w>": 451,
      "а</w>": 452,
      "©</w>": 453,
      "מ</w>": 454,
      "¹</w>": 455,
      "長</w>": 456,
      "ח</w>": 457,
      "и</w>": 458,
      "ס</w>": 459,
      "ᆫ</w>": 460,
      "ー</w>": 461,
      "ϛ</w>": 462,
      "−</w>": 463,
      "¤</w>": 464,
      "ז</w>": 465,
      "ש</w>": 466,
      "ᆯ</w>": 467,
      "т</w>": 468,
      "~</w>": 469,
      "в</w>": 470,
      "†</w>": 471,
      "@</w>": 472,
      "人</w>": 473,
      "ン</w>": 474,
      "⁄</w>": 475,
      "ב</w>": 476,
      "ψ</w>": 477,
      "м</w>": 478,
      "♯</w>": 479,
      "с</w>": 480,
      "μ</w>": 481,
      "ק</w>": 482,
      "υ</w>": 483,
      "≤</w>": 484,
      "،</w>": 485,
      "′</w>": 486,
      "±</w>": 487,
      "‟</w>": 488,
      "¨</w>": 489,
      "谷</w>": 490,
      "□</w>": 491,
      "£</w>": 492,
      "„</w>": 493,
      "‐</w>": 494,
      "«</w>": 495,
      "›</w>": 496,
      "ξ</w>": 497,
      "⅓</w>": 498,
      "»</w>": 499,
      "↵</w>": 500,
      "∆</w>": 501,
      "־</w>": 502,
      "ศ</w>": 503,
      "‧</w>": 504,
      "ˈ</w>": 505,
      "∙</w>": 506,
      "ο</w>": 507,
      "²</w>": 508,
      "د</w>": 509,
      "⌃</w>": 510,
      "צ</w>": 511,
      "「</w>": 512,
      "‹</w>": 513,
      "戸</w>": 514,
      "θ</w>": 515,
      "」</w>": 516,
      "⇒</w>": 517,
      "←</w>": 518,
      "🔎</w>": 519,
      "ر</w>": 520,
      "樺</w>": 521,
      "⚑</w>": 522,
      "ク</w>": 523,
      "🙂</w>": 524,
      "×</w>": 525,
      "µ</w>": 526,
      "→</w>": 527,
      "¸</w>": 528,
      "‚</w>": 529,
      "β</w>": 530,
      "ь</w>": 531,
      "ن</w>": 532,
      "ð</w>": 533,
      "⅔</w>": 534,
      "ʼ</w>": 535,
      "λ</w>": 536,
      "●</w>": 537,
      "®</w>": 538,
      "°</w>": 539,
      "ง</w>": 540,
      "¯</w>": 541,
      "≥</w>": 542,
      "th": 543,
      "the</w>": 544,
      "in": 545,
      "an": 546,
      "er": 547,
      "re": 548,
      "ti": 549,
      "en": 550,
      "ar": 551,
      "ed</w>": 552,
      "of</w>": 553,
      "on": 554,
      "and</w>": 555,
      "ou": 556,
      "or": 557,
      "to</w>": 558,
      "ing</w>": 559,
      "on</w>": 560,
      "er</w>": 561,
      "in</w>": 562,
      "st": 563,
      "al": 564,
      "es</w>": 565,
      "it": 566,
      "is</w>": 567,
      "at": 568,
      "ro": 569,
      "at</w>": 570,
      "as</w>": 571,
      "or</w>": 572,
      "ic": 573,
      "ac": 574,
      "il": 575,
      "el": 576,
      "al</w>": 577,
      "an</w>": 578,
      "is": 579,
      "es": 580,
      "om": 581,
      "ec": 582,
      "wh": 583,
      "en</w>": 584,
      "as": 585,
      "ati": 586,
      "ly</w>": 587,
      "ur": 588,
      "ol": 589,
      "that</w>": 590,
      "ch": 591,
      "the": 592,
      "ve</w>": 593,
      "am": 594,
      "si": 595,
      "ha": 596,
      "li": 597,
      "di": 598,
      "ri": 599,
      "un": 600,
      "us": 601,
      "le</w>": 602,
      "it</w>": 603,
      "ent</w>": 604,
      "le": 605,
      "ts</w>": 606,
      "no": 607,
      "for</w>": 608,
      "lo": 609,
      "ab": 610,
      "de": 611,
      "con": 612,
      "pro": 613,
      "ere</w>": 614,
      "be": 615,
      "su": 616,
      "ad": 617,
      "ag": 618,
      "was</w>": 619,
      "se": 620,
      "are</w>": 621,
      "ith</w>": 622,
      "ver": 623,
      "ce</w>": 624,
      "os": 625,
      "op": 626,
      "ation</w>": 627,
      "ex": 628,
      "with</w>": 629,
      "ers</w>": 630,
      "em": 631,
      "com": 632,
      "ir": 633,
      "sh": 634,
      "ne": 635,
      "ay</w>": 636,
      "tr": 637,
      "gh": 638,
      "by</w>": 639,
      "bu": 640,
      "oun": 641,
      "ap": 642,
      "be</w>": 643,
      "tion</w>": 644,
      "ul": 645,
      "sp": 646,
      "this</w>": 647,
      "for": 648,
      "ons</w>": 649,
      "ar</w>": 650,
      "th</w>": 651,
      "fro": 652,
      "ow": 653,
      "ld</w>": 654,
      "from</w>": 655,
      "oo": 656,
      "ther</w>": 657,
      "pl": 658,
      "ci": 659,
      "pre": 660,
      "im": 661,
      "vi": 662,
      "per": 663,
      "ds</w>": 664,
      "qu": 665,
      "wor": 666,
      "ity</w>": 667,
      "out</w>": 668,
      "ir</w>": 669,
      "uc": 670,
      "one</w>": 671,
      "ter": 672,
      "ate</w>": 673,
      "they</w>": 674,
      "ted</w>": 675,
      "not</w>": 676,
      "ak": 677,
      "have</w>": 678,
      "hi": 679,
      "ff": 680,
      "pe": 681,
      "he</w>": 682,
      "so</w>": 683,
      "all</w>": 684,
      "ev": 685,
      "gr": 686,
      "ould</w>": 687,
      "their</w>": 688,
      "our</w>": 689,
      "ou</w>": 690,
      "his</w>": 691,
      "ter</w>": 692,
      "you</w>": 693,
      "but</w>": 694,
      "were</w>": 695,
      "me": 696,
      "par": 697,
      "ud": 698,
      "ally</w>": 699,
      "man": 700,
      "ght</w>": 701,
      "ich</w>": 702,
      "ch</w>": 703,
      "ain": 704,
      "mo": 705,
      "str": 706,
      "mor": 707,
      "ear": 708,
      "cl": 709,
      "which</w>": 710,
      "ent": 711,
      "st</w>": 712,
      "ay": 713,
      "tim": 714,
      "ing": 715,
      "we</w>": 716,
      "ment</w>": 717,
      "por": 718,
      "we": 719,
      "ure</w>": 720,
      "go": 721,
      "co": 722,
      "ated</w>": 723,
      "som": 724,
      "gh</w>": 725,
      "ess</w>": 726,
      "ai": 727,
      "um": 728,
      "19": 729,
      "ents</w>": 730,
      "more</w>": 731,
      "can</w>": 732,
      "po": 733,
      "bo": 734,
      "dis": 735,
      "wil": 736,
      "age</w>": 737,
      "af": 738,
      "our": 739,
      "to": 740,
      "et</w>": 741,
      "had</w>": 742,
      "us</w>": 743,
      "gi": 744,
      "ed": 745,
      "its</w>": 746,
      "has</w>": 747,
      "ge</w>": 748,
      "other</w>": 749,
      "ant</w>": 750,
      "se</w>": 751,
      "te": 752,
      "ence</w>": 753,
      "fi": 754,
      "ain</w>": 755,
      "est</w>": 756,
      "are": 757,
      "he": 758,
      "id": 759,
      "who</w>": 760,
      "there</w>": 761,
      "tic": 762,
      "av": 763,
      "ver</w>": 764,
      "mar": 765,
      "do": 766,
      "use</w>": 767,
      "au": 768,
      "gre": 769,
      "ost</w>": 770,
      "ad</w>": 771,
      "ty</w>": 772,
      "ame</w>": 773,
      "rec": 774,
      "ine</w>": 775,
      "ding</w>": 776,
      "cont": 777,
      "ho": 778,
      "when</w>": 779,
      "ese</w>": 780,
      "about</w>": 781,
      "comm": 782,
      "ough</w>": 783,
      "pu": 784,
      "bec": 785,
      "ies</w>": 786,
      "ely</w>": 787,
      "der</w>": 788,
      "able</w>": 789,
      "der": 790,
      "br": 791,
      "ting</w>": 792,
      "cre": 793,
      "also</w>": 794,
      "fe": 795,
      "will</w>": 796,
      "pr": 797,
      "ous</w>": 798,
      "so": 799,
      "min": 800,
      "if</w>": 801,
      "ser": 802,
      "enti": 803,
      "onal</w>": 804,
      "been</w>": 805,
      "ound</w>": 806,
      "tu": 807,
      "ary</w>": 808,
      "ake</w>": 809,
      "ong</w>": 810,
      "fir": 811,
      "ess": 812,
      "ic</w>": 813,
      "ph": 814,
      "ks</w>": 815,
      "what</w>": 816,
      "ast</w>": 817,
      "some</w>": 818,
      "would</w>": 819,
      "pres": 820,
      "king</w>": 821,
      "20": 822,
      "peop": 823,
      "all": 824,
      "these</w>": 825,
      "red</w>": 826,
      "gen": 827,
      "stor": 828,
      "most</w>": 829,
      "time</w>": 830,
      "col": 831,
      "people</w>": 832,
      "du": 833,
      "ell</w>": 834,
      "ke</w>": 835,
      "coun": 836,
      "ust</w>": 837,
      "inter": 838,
      "bl": 839,
      "gu": 840,
      "them</w>": 841,
      "new</w>": 842,
      "tions</w>": 843,
      "kno": 844,
      "ays</w>": 845,
      "tw": 846,
      "ge": 847,
      "ations</w>": 848,
      "than</w>": 849,
      "fac": 850,
      "very</w>": 851,
      "ance</w>": 852,
      "ose</w>": 853,
      "fin": 854,
      "sel": 855,
      "ood</w>": 856,
      "chil": 857,
      "ans</w>": 858,
      "fu": 859,
      "many</w>": 860,
      "your</w>": 861,
      "gn": 862,
      "ra": 863,
      "ded</w>": 864,
      "comp": 865,
      "sts</w>": 866,
      "ved</w>": 867,
      "own</w>": 868,
      "iz": 869,
      "ect</w>": 870,
      "oc": 871,
      "de</w>": 872,
      "day</w>": 873,
      "mil": 874,
      "ical</w>": 875,
      "ste": 876,
      "la": 877,
      "mon": 878,
      "stud": 879,
      "ings</w>": 880,
      "sy": 881,
      "her</w>": 882,
      "form": 883,
      "ties</w>": 884,
      "up</w>": 885,
      "ard</w>": 886,
      "el</w>": 887,
      "aid</w>": 888,
      "ater</w>": 889,
      "ite</w>": 890,
      "dre": 891,
      "into</w>": 892,
      "duc": 893,
      "ber</w>": 894,
      "ates</w>": 895,
      "te</w>": 896,
      "first</w>": 897,
      "att": 898,
      "sti": 899,
      "no</w>": 900,
      "sch": 901,
      "ish</w>": 902,
      "ice</w>": 903,
      "des": 904,
      "am</w>": 905,
      "way</w>": 906,
      "land</w>": 907,
      "ep": 908,
      "only</w>": 909,
      "ase</w>": 910,
      "ves</w>": 911,
      "fl": 912,
      "do</w>": 913,
      "als</w>": 914,
      "low": 915,
      "ack</w>": 916,
      "cor": 917,
      "pol": 918,
      "tre": 919,
      "may</w>": 920,
      "ill": 921,
      "vel": 922,
      "wi": 923,
      "00</w>": 924,
      "ade</w>": 925,
      "ps</w>": 926,
      "pos": 927,
      "ears</w>": 928,
      "sec": 929,
      "ving</w>": 930,
      "ru": 931,
      "dec": 932,
      "ast": 933,
      "hel": 934,
      "tur": 935,
      "ause</w>": 936,
      "car": 937,
      "enc": 938,
      "sion</w>": 939,
      "ass": 940,
      "ors</w>": 941,
      "uni": 942,
      "tri": 943,
      "bi": 944,
      "bet": 945,
      "mi": 946,
      "ang": 947,
      "any</w>": 948,
      "anc": 949,
      "18": 950,
      "two</w>": 951,
      "years</w>": 952,
      "ish": 953,
      "like</w>": 954,
      "how</w>": 955,
      "thr": 956,
      "pp": 957,
      "used</w>": 958,
      "jo": 959,
      "cri": 960,
      "ace</w>": 961,
      "after</w>": 962,
      "tive</w>": 963,
      "such</w>": 964,
      "ile</w>": 965,
      "ever</w>": 966,
      "my</w>": 967,
      "old</w>": 968,
      "spec": 969,
      "soci": 970,
      "ble</w>": 971,
      "eng": 972,
      "thing</w>": 973,
      "res</w>": 974,
      "and": 975,
      "fre": 976,
      "ke": 977,
      "diff": 978,
      "fe</w>": 979,
      "said</w>": 980,
      "ach</w>": 981,
      "ning</w>": 982,
      "ach": 983,
      "over</w>": 984,
      "ia</w>": 985,
      "could</w>": 986,
      "ist</w>": 987,
      "son</w>": 988,
      "ob": 989,
      ").</w>": 990,
      "loo": 991,
      "nati": 992,
      "ily</w>": 993,
      "amer": 994,
      "man</w>": 995,
      "ell": 996,
      "olo": 997,
      "sur": 998,
      "ture</w>": 999,
      "ss</w>": 1000,
      "where</w>": 1001,
      "work</w>": 1002,
      "ye": 1003,
      "then</w>": 1004,
      "of": 1005,
      "me</w>": 1006,
      "ten": 1007,
      "she</w>": 1008,
      "even</w>": 1009,
      "ther": 1010,
      "well</w>": 1011,
      "americ": 1012,
      "know": 1013,
      "bel": 1014,
      "nor": 1015,
      "world</w>": 1016,
      "off": 1017,
      "ten</w>": 1018,
      "gy</w>": 1019,
      "shi": 1020,
      "port": 1021,
      "ating</w>": 1022,
      "clud": 1023,
      "ked</w>": 1024,
      "est": 1025,
      "because</w>": 1026,
      "fam": 1027,
      "ris": 1028,
      "ple</w>": 1029,
      "those</w>": 1030,
      "vern": 1031,
      "ms</w>": 1032,
      "now</w>": 1033,
      "dur": 1034,
      "childre": 1035,
      "children</w>": 1036,
      "ei": 1037,
      "row": 1038,
      "lar": 1039,
      "rel": 1040,
      "cen": 1041,
      "pri": 1042,
      "devel": 1043,
      "loc": 1044,
      "ited</w>": 1045,
      "fore</w>": 1046,
      "govern": 1047,
      "with": 1048,
      "life</w>": 1049,
      "ari": 1050,
      "pen": 1051,
      "self</w>": 1052,
      "cur": 1053,
      "histor": 1054,
      "cu": 1055,
      "while</w>": 1056,
      "fa": 1057,
      "vis": 1058,
      "ig": 1059,
      "being</w>": 1060,
      "wr": 1061,
      "sear": 1062,
      "him</w>": 1063,
      "ful</w>": 1064,
      "tic</w>": 1065,
      "through</w>": 1066,
      "just</w>": 1067,
      "peri": 1068,
      "ool</w>": 1069,
      "ome</w>": 1070,
      "includ": 1071,
      "cer": 1072,
      "ma": 1073,
      "ll</w>": 1074,
      "during</w>": 1075,
      "inv": 1076,
      "some": 1077,
      "year</w>": 1078,
      "low</w>": 1079,
      "sm": 1080,
      "muc": 1081,
      "fr": 1082,
      "cap": 1083,
      "sub": 1084,
      "made</w>": 1085,
      "sol": 1086,
      "thre": 1087,
      "much</w>": 1088,
      "mem": 1089,
      "gener": 1090,
      "ric": 1091,
      "ial</w>": 1092,
      "lear": 1093,
      "can": 1094,
      "ook</w>": 1095,
      "ement</w>": 1096,
      "bas": 1097,
      "sci": 1098,
      "indi": 1099,
      "ween</w>": 1100,
      "char": 1101,
      "ren": 1102,
      "pow": 1103,
      "end</w>": 1104,
      "make</w>": 1105,
      "between</w>": 1106,
      "tec": 1107,
      "heal": 1108,
      "ous": 1109,
      "under": 1110,
      "differ": 1111,
      "ber": 1112,
      ".\"</w>": 1113,
      "wom": 1114,
      "),</w>": 1115,
      "dic": 1116,
      "tly</w>": 1117,
      "ory</w>": 1118,
      "prob": 1119,
      "get</w>": 1120,
      "ue</w>": 1121,
      "try</w>": 1122,
      "how": 1123,
      "produc": 1124,
      "num": 1125,
      "ned</w>": 1126,
      "200": 1127,
      "ying</w>": 1128,
      "resear": 1129,
      "develop": 1130,
      "fic": 1131,
      "should</w>": 1132,
      "re</w>": 1133,
      "eff": 1134,
      "mis": 1135,
      "water</w>": 1136,
      "dr": 1137,
      "cr": 1138,
      "tt": 1139,
      ".”</w>": 1140,
      "see</w>": 1141,
      "read": 1142,
      "emp": 1143,
      "lan": 1144,
      "national</w>": 1145,
      "lit": 1146,
      "ali": 1147,
      "um</w>": 1148,
      "act</w>": 1149,
      "yp": 1150,
      "mat": 1151,
      "ca": 1152,
      "ants</w>": 1153,
      "sk": 1154,
      "cour": 1155,
      "nat": 1156,
      "vir": 1157,
      "vers": 1158,
      "sou": 1159,
      "les</w>": 1160,
      "buil": 1161,
      "however</w>": 1162,
      "fol": 1163,
      "though</w>": 1164,
      "serv": 1165,
      "before</w>": 1166,
      "acc": 1167,
      "struc": 1168,
      "war": 1169,
      "found</w>": 1170,
      "government</w>": 1171,
      "school</w>": 1172,
      "ni": 1173,
      "et": 1174,
      "har": 1175,
      "ected</w>": 1176,
      "sul": 1177,
      "did</w>": 1178,
      "sin": 1179,
      "state</w>": 1180,
      "aking</w>": 1181,
      "part</w>": 1182,
      "war</w>": 1183,
      "port</w>": 1184,
      "import": 1185,
      "thin": 1186,
      "students</w>": 1187,
      "ore": 1188,
      "same</w>": 1189,
      "poin": 1190,
      "beg": 1191,
      "ve": 1192,
      "bre": 1193,
      "qui": 1194,
      "ws</w>": 1195,
      "fer": 1196,
      "bri": 1197,
      "tran": 1198,
      "tical</w>": 1199,
      "call": 1200,
      "less</w>": 1201,
      "both</w>": 1202,
      "pop": 1203,
      "dy</w>": 1204,
      "pi": 1205,
      "sign": 1206,
      "grou": 1207,
      "sen": 1208,
      "sup": 1209,
      "cent": 1210,
      "great</w>": 1211,
      "ility</w>": 1212,
      "led</w>": 1213,
      "educ": 1214,
      "incre": 1215,
      "consi": 1216,
      "ange</w>": 1217,
      "cul": 1218,
      "good</w>": 1219,
      "acti": 1220,
      "star": 1221,
      "ished</w>": 1222,
      "dent</w>": 1223,
      "reg": 1224,
      "provi": 1225,
      "exam": 1226,
      "resp": 1227,
      "main": 1228,
      "clo": 1229,
      "women</w>": 1230,
      "ought</w>": 1231,
      "ail": 1232,
      "ef": 1233,
      "each</w>": 1234,
      "lin": 1235,
      "ven</w>": 1236,
      "out": 1237,
      "still</w>": 1238,
      "gg": 1239,
      ",\"</w>": 1240,
      "times</w>": 1241,
      "long</w>": 1242,
      "take</w>": 1243,
      "mp": 1244,
      "ative</w>": 1245,
      "ages</w>": 1246,
      "ond</w>": 1247,
      "stem</w>": 1248,
      "side</w>": 1249,
      "don</w>": 1250,
      "three</w>": 1251,
      "ship</w>": 1252,
      "known</w>": 1253,
      "come</w>": 1254,
      "back</w>": 1255,
      "10</w>": 1256,
      "contin": 1257,
      "ass</w>": 1258,
      "ion</w>": 1259,
      "states</w>": 1260,
      "val": 1261,
      "right</w>": 1262,
      "popul": 1263,
      "aren": 1264,
      "000</w>": 1265,
      "ong": 1266,
      "onom": 1267,
      "ury</w>": 1268,
      "tle</w>": 1269,
      "help</w>": 1270,
      "writ": 1271,
      "proc": 1272,
      "ety</w>": 1273,
      "tain</w>": 1274,
      "bli": 1275,
      "ep</w>": 1276,
      "hum": 1277,
      "ft</w>": 1278,
      "american</w>": 1279,
      "org": 1280,
      "exp": 1281,
      "another</w>": 1282,
      "ful": 1283,
      "ise</w>": 1284,
      "history</w>": 1285,
      "know</w>": 1286,
      "under</w>": 1287,
      "ways</w>": 1288,
      "bor": 1289,
      "god</w>": 1290,
      "ects</w>": 1291,
      "sour": 1292,
      "often</w>": 1293,
      "ath</w>": 1294,
      "up": 1295,
      "tra": 1296,
      "high": 1297,
      "ism</w>": 1298,
      "health</w>": 1299,
      "men</w>": 1300,
      "vo": 1301,
      "inform": 1302,
      "go</w>": 1303,
      "commun": 1304,
      "stitu": 1305,
      "here</w>": 1306,
      "om</w>": 1307,
      "need</w>": 1308,
      "important</w>": 1309,
      "thers</w>": 1310,
      "study</w>": 1311,
      "called</w>": 1312,
      "cent</w>": 1313,
      "fun": 1314,
      "ven": 1315,
      "vie": 1316,
      "tis": 1317,
      "tor</w>": 1318,
      "stri": 1319,
      "ici": 1320,
      "ject</w>": 1321,
      "down</w>": 1322,
      "sible</w>": 1323,
      "beli": 1324,
      "lim": 1325,
      "proble": 1326,
      "publi": 1327,
      "ality</w>": 1328,
      "place</w>": 1329,
      "public</w>": 1330,
      "ant": 1331,
      "different</w>": 1332,
      "high</w>": 1333,
      "since</w>": 1334,
      "around</w>": 1335,
      "ys": 1336,
      "power</w>": 1337,
      "system</w>": 1338,
      "ology</w>": 1339,
      "ments</w>": 1340,
      "ide": 1341,
      "sted</w>": 1342,
      "hou": 1343,
      "family</w>": 1344,
      "organ": 1345,
      "ens</w>": 1346,
      "cc": 1347,
      "sive</w>": 1348,
      "appe": 1349,
      "form</w>": 1350,
      "ness</w>": 1351,
      "bro": 1352,
      "ger": 1353,
      "resul": 1354,
      "ext</w>": 1355,
      "tro": 1356,
      "eu": 1357,
      "ind</w>": 1358,
      "ared</w>": 1359,
      "stre": 1360,
      "sed</w>": 1361,
      "typ": 1362,
      "ainst</w>": 1363,
      "against</w>": 1364,
      "ton</w>": 1365,
      "ces</w>": 1366,
      "comple": 1367,
      "hear": 1368,
      "mus": 1369,
      "leg": 1370,
      "lead": 1371,
      "poli": 1372,
      "posi": 1373,
      ",”</w>": 1374,
      "early</w>": 1375,
      "child</w>": 1376,
      "econom": 1377,
      "ale</w>": 1378,
      "bur": 1379,
      "her": 1380,
      "sw": 1381,
      "hu": 1382,
      "lion</w>": 1383,
      "ghts</w>": 1384,
      "direc": 1385,
      "progr": 1386,
      "ases</w>": 1387,
      "bers</w>": 1388,
      "does</w>": 1389,
      "without</w>": 1390,
      "contro": 1391,
      "every</w>": 1392,
      "vari": 1393,
      "stan": 1394,
      "del": 1395,
      "appro": 1396,
      "using</w>": 1397,
      "ently</w>": 1398,
      "mu": 1399,
      "nec": 1400,
      "aw": 1401,
      "ili": 1402,
      "research</w>": 1403,
      "sum": 1404,
      "number</w>": 1405,
      "says</w>": 1406,
      "ual</w>": 1407,
      "ually</w>": 1408,
      "over": 1409,
      "ry</w>": 1410,
      "ban": 1411,
      "might</w>": 1412,
      "grow": 1413,
      "must</w>": 1414,
      "auth": 1415,
      "human</w>": 1416,
      "ental</w>": 1417,
      "199": 1418,
      "201": 1419,
      "information</w>": 1420,
      "few</w>": 1421,
      "ave</w>": 1422,
      "paren": 1423,
      "versity</w>": 1424,
      "ill</w>": 1425,
      "sha": 1426,
      "succ": 1427,
      "follow": 1428,
      "vol": 1429,
      "ized</w>": 1430,
      "later</w>": 1431,
      "ques": 1432,
      "tech": 1433,
      "country</w>": 1434,
      "ide</w>": 1435,
      "respon": 1436,
      "publ": 1437,
      "line</w>": 1438,
      "sho": 1439,
      "aff": 1440,
      "medi": 1441,
      "prin": 1442,
      "ire</w>": 1443,
      "think</w>": 1444,
      "arly</w>": 1445,
      "city</w>": 1446,
      "fore": 1447,
      "ems</w>": 1448,
      "exc": 1449,
      "ately</w>": 1450,
      "akes</w>": 1451,
      "body</w>": 1452,
      "sever": 1453,
      "adv": 1454,
      "id</w>": 1455,
      "tain": 1456,
      "small</w>": 1457,
      "ath": 1458,
      "tes</w>": 1459,
      "hol": 1460,
      "je": 1461,
      "law</w>": 1462,
      "hun": 1463,
      "set</w>": 1464,
      "dence</w>": 1465,
      "spe": 1466,
      "little</w>": 1467,
      "last</w>": 1468,
      "bar": 1469,
      "pur": 1470,
      "per</w>": 1471,
      "tional</w>": 1472,
      "century</w>": 1473,
      "dise": 1474,
      "food</w>": 1475,
      "ster": 1476,
      "dition</w>": 1477,
      "reli": 1478,
      "tem": 1479,
      "education</w>": 1480,
      "ters</w>": 1481,
      "united</w>": 1482,
      "ey</w>": 1483,
      "ices</w>": 1484,
      "book</w>": 1485,
      "coll": 1486,
      "happ": 1487,
      "plan": 1488,
      "large</w>": 1489,
      "too</w>": 1490,
      "say</w>": 1491,
      "ek</w>": 1492,
      "chang": 1493,
      "today</w>": 1494,
      "cle": 1495,
      "ail</w>": 1496,
      "bir": 1497,
      "unti": 1498,
      "tion": 1499,
      "accor": 1500,
      "maj": 1501,
      "find</w>": 1502,
      "until</w>": 1503,
      "prof": 1504,
      "ort</w>": 1505,
      "order</w>": 1506,
      "ju": 1507,
      "il</w>": 1508,
      "..": 1509,
      "ences</w>": 1510,
      "plac": 1511,
      "became</w>": 1512,
      "az": 1513,
      "grap": 1514,
      "change</w>": 1515,
      "experi": 1516,
      "youn": 1517,
      "reas": 1518,
      "read</w>": 1519,
      "han": 1520,
      "sc": 1521,
      "university</w>": 1522,
      "them": 1523,
      "off</w>": 1524,
      "ural</w>": 1525,
      "stu": 1526,
      "dge</w>": 1527,
      "ular</w>": 1528,
      "sure</w>": 1529,
      "example</w>": 1530,
      "ols</w>": 1531,
      "group</w>": 1532,
      "oper": 1533,
      "including</w>": 1534,
      "ah</w>": 1535,
      "ever": 1536,
      "ner</w>": 1537,
      "ses</w>": 1538,
      "among</w>": 1539,
      "ist": 1540,
      "tow": 1541,
      "orig": 1542,
      "elec": 1543,
      "become</w>": 1544,
      "things</w>": 1545,
      "house</w>": 1546,
      "far": 1547,
      "gl": 1548,
      "percent</w>": 1549,
      "light</w>": 1550,
      "imp": 1551,
      "issu": 1552,
      "depen": 1553,
      "cam": 1554,
      "fact</w>": 1555,
      "nam": 1556,
      "presi": 1557,
      "ns</w>": 1558,
      "pers": 1559,
      "end": 1560,
      "several</w>": 1561,
      "dies</w>": 1562,
      "home</w>": 1563,
      "scienti": 1564,
      "ben": 1565,
      "eg": 1566,
      "ef</w>": 1567,
      "od</w>": 1568,
      "ased</w>": 1569,
      "tor": 1570,
      "fri": 1571,
      "anim": 1572,
      "vely</w>": 1573,
      "ability</w>": 1574,
      "regi": 1575,
      "ak</w>": 1576,
      "ins</w>": 1577,
      "17": 1578,
      "ann": 1579,
      "ash": 1580,
      "others</w>": 1581,
      "ably</w>": 1582,
      "joh": 1583,
      "tal": 1584,
      "ling</w>": 1585,
      "pat": 1586,
      "north</w>": 1587,
      "point</w>": 1588,
      "according</w>": 1589,
      "bus": 1590,
      "teach": 1591,
      "why</w>": 1592,
      "da": 1593,
      "evi": 1594,
      "lev": 1595,
      "ross</w>": 1596,
      "chur": 1597,
      "pic": 1598,
      "social</w>": 1599,
      "cho": 1600,
      "put</w>": 1601,
      "whe": 1602,
      "fur": 1603,
      "something</w>": 1604,
      "20</w>": 1605,
      "lik": 1606,
      "hal": 1607,
      "person</w>": 1608,
      "recei": 1609,
      "possible</w>": 1610,
      "ells</w>": 1611,
      "area</w>": 1612,
      "cover": 1613,
      "0s</w>": 1614,
      "partic": 1615,
      "fic</w>": 1616,
      "common</w>": 1617,
      "tting</w>": 1618,
      "ific": 1619,
      "sit": 1620,
      "expl": 1621,
      "cip": 1622,
      "dist": 1623,
      "ution</w>": 1624,
      "euro": 1625,
      "sal": 1626,
      "ick": 1627,
      "hor": 1628,
      "better</w>": 1629,
      "south</w>": 1630,
      "second</w>": 1631,
      "ital</w>": 1632,
      "never</w>": 1633,
      "infl": 1634,
      "centr": 1635,
      "techn": 1636,
      "every": 1637,
      "within</w>": 1638,
      "den": 1639,
      "work": 1640,
      "50</w>": 1641,
      "doc": 1642,
      "ign": 1643,
      "win": 1644,
      "best</w>": 1645,
      "although</w>": 1646,
      "den</w>": 1647,
      "ams</w>": 1648,
      "ack": 1649,
      "going</w>": 1650,
      "came</w>": 1651,
      "lab": 1652,
      "mer": 1653,
      "show": 1654,
      "trans": 1655,
      "continu": 1656,
      "far</w>": 1657,
      "selves</w>": 1658,
      "ered</w>": 1659,
      "hy": 1660,
      "tors</w>": 1661,
      "name</w>": 1662,
      "based</w>": 1663,
      "once</w>": 1664,
      "ept</w>": 1665,
      "any": 1666,
      "inf": 1667,
      "ths</w>": 1668,
      "associ": 1669,
      "given</w>": 1670,
      "arch": 1671,
      "olog": 1672,
      "consider": 1673,
      "pass": 1674,
      "air</w>": 1675,
      "ped</w>": 1676,
      "general</w>": 1677,
      "ential</w>": 1678,
      "eas": 1679,
      "tics</w>": 1680,
      "saf": 1681,
      "four</w>": 1682,
      "des</w>": 1683,
      "sto": 1684,
      "ders</w>": 1685,
      "wat": 1686,
      "gar": 1687,
      "ats</w>": 1688,
      "sions</w>": 1689,
      "dri": 1690,
      "ign</w>": 1691,
      "disease</w>": 1692,
      "fied</w>": 1693,
      "days</w>": 1694,
      "political</w>": 1695,
      "development</w>": 1696,
      "ics</w>": 1697,
      "actu": 1698,
      "envir": 1699,
      "dat": 1700,
      "larg": 1701,
      "ready</w>": 1702,
      "let</w>": 1703,
      "scho": 1704,
      "environ": 1705,
      "indu": 1706,
      "look</w>": 1707,
      "pris": 1708,
      "ian</w>": 1709,
      "ta": 1710,
      "ically</w>": 1711,
      "action</w>": 1712,
      "pe</w>": 1713,
      "repres": 1714,
      "ures</w>": 1715,
      "ones</w>": 1716,
      "art</w>": 1717,
      "next</w>": 1718,
      "means</w>": 1719,
      "death</w>": 1720,
      "abl": 1721,
      "anci": 1722,
      "30</w>": 1723,
      "eds</w>": 1724,
      "ki": 1725,
      "left</w>": 1726,
      "--</w>": 1727,
      "having</w>": 1728,
      "ards</w>": 1729,
      "ult</w>": 1730,
      "ergy</w>": 1731,
      "main</w>": 1732,
      "inc": 1733,
      "air": 1734,
      "west</w>": 1735,
      "want</w>": 1736,
      "likely</w>": 1737,
      "ough": 1738,
      "recor": 1739,
      "eve</w>": 1740,
      "descri": 1741,
      "afric": 1742,
      "langu": 1743,
      "young</w>": 1744,
      "john</w>": 1745,
      "care</w>": 1746,
      "remain": 1747,
      "tom": 1748,
      "view</w>": 1749,
      "making</w>": 1750,
      "vidu": 1751,
      "individu": 1752,
      "support</w>": 1753,
      "president</w>": 1754,
      "boo": 1755,
      "words</w>": 1756,
      "ature</w>": 1757,
      "control</w>": 1758,
      "12</w>": 1759,
      "stand</w>": 1760,
      "ina</w>": 1761,
      "ization</w>": 1762,
      "free</w>": 1763,
      "ously</w>": 1764,
      "took</w>": 1765,
      "case</w>": 1766,
      "local</w>": 1767,
      "away</w>": 1768,
      "repor": 1769,
      "turn</w>": 1770,
      "uses</w>": 1771,
      "upon</w>": 1772,
      "hom": 1773,
      "sa": 1774,
      "ines</w>": 1775,
      "foun": 1776,
      "ained</w>": 1777,
      "church</w>": 1778,
      "cal": 1779,
      "treat": 1780,
      "process</w>": 1781,
      "gs</w>": 1782,
      "thir": 1783,
      "play": 1784,
      "dom": 1785,
      "stat": 1786,
      "phys": 1787,
      "pec": 1788,
      "equ": 1789,
      "thy</w>": 1790,
      "science</w>": 1791,
      "ze</w>": 1792,
      "posed</w>": 1793,
      "face</w>": 1794,
      "canc": 1795,
      "invol": 1796,
      "aining</w>": 1797,
      "relati": 1798,
      "always</w>": 1799,
      "abo": 1800,
      "began</w>": 1801,
      "origin": 1802,
      "sing</w>": 1803,
      "vic": 1804,
      "aged</w>": 1805,
      "ains</w>": 1806,
      "ight</w>": 1807,
      "charac": 1808,
      "wal": 1809,
      "along</w>": 1810,
      "stry</w>": 1811,
      ".,</w>": 1812,
      "sist": 1813,
      "establ": 1814,
      "els</w>": 1815,
      "million</w>": 1816,
      "ented</w>": 1817,
      "word</w>": 1818,
      "curren": 1819,
      "ars</w>": 1820,
      "give</w>": 1821,
      "yet</w>": 1822,
      "nov": 1823,
      "new": 1824,
      "identi": 1825,
      "bed</w>": 1826,
      "jud": 1827,
      "part": 1828,
      "community</w>": 1829,
      "em</w>": 1830,
      "suff": 1831,
      "toge": 1832,
      "enough</w>": 1833,
      "really</w>": 1834,
      "tish</w>": 1835,
      "together</w>": 1836,
      "moder": 1837,
      "rather</w>": 1838,
      "themselves</w>": 1839,
      "white</w>": 1840,
      "duce</w>": 1841,
      "energy</w>": 1842,
      "emplo": 1843,
      "natural</w>": 1844,
      "dro": 1845,
      "ches</w>": 1846,
      "again</w>": 1847,
      "iness</w>": 1848,
      "fiel": 1849,
      "story</w>": 1850,
      "acy</w>": 1851,
      "15</w>": 1852,
      "dem": 1853,
      "stric": 1854,
      "ick</w>": 1855,
      "died</w>": 1856,
      "five</w>": 1857,
      "reco": 1858,
      "ket</w>": 1859,
      "dn</w>": 1860,
      "mental</w>": 1861,
      "working</w>": 1862,
      "sources</w>": 1863,
      "mag": 1864,
      "mov": 1865,
      "ially</w>": 1866,
      "research": 1867,
      "une</w>": 1868,
      "tak": 1869,
      "river</w>": 1870,
      "religi": 1871,
      "requi": 1872,
      "yor": 1873,
      "row</w>": 1874,
      "parents</w>": 1875,
      "ened</w>": 1876,
      "population</w>": 1877,
      "ority</w>": 1878,
      "members</w>": 1879,
      "mos": 1880,
      "ection</w>": 1881,
      "ious</w>": 1882,
      "money</w>": 1883,
      "level</w>": 1884,
      "tan": 1885,
      "black</w>": 1886,
      "ole</w>": 1887,
      "rights</w>": 1888,
      "mid": 1889,
      "ements</w>": 1890,
      "major</w>": 1891,
      "thern</w>": 1892,
      "arti": 1893,
      "conc": 1894,
      "parti": 1895,
      "course</w>": 1896,
      "supp": 1897,
      "ire": 1898,
      "def": 1899,
      "16": 1900,
      "bal": 1901,
      "thought</w>": 1902,
      "half</w>": 1903,
      "learning</w>": 1904,
      "site</w>": 1905,
      "institu": 1906,
      "seen</w>": 1907,
      "plic": 1908,
      "dr</w>": 1909,
      "knowle": 1910,
      "exper": 1911,
      "signific": 1912,
      "ey": 1913,
      "eder": 1914,
      "ward</w>": 1915,
      "certain</w>": 1916,
      "meas": 1917,
      "position</w>": 1918,
      "problem</w>": 1919,
      "period</w>": 1920,
      "feder": 1921,
      "language</w>": 1922,
      "deter": 1923,
      "impro": 1924,
      "sing": 1925,
      "dam": 1926,
      "ills</w>": 1927,
      "schools</w>": 1928,
      "hop": 1929,
      "allow": 1930,
      "species</w>": 1931,
      "keep</w>": 1932,
      "ireland</w>": 1933,
      "hard</w>": 1934,
      "program</w>": 1935,
      "ditions</w>": 1936,
      "trac": 1937,
      "pati": 1938,
      "head</w>": 1939,
      "almost</w>": 1940,
      "least</w>": 1941,
      "lot</w>": 1942,
      "clu": 1943,
      "tru": 1944,
      "atic</w>": 1945,
      "gn</w>": 1946,
      "chi": 1947,
      "sim": 1948,
      "risk</w>": 1949,
      "engl": 1950,
      "my": 1951,
      "company</w>": 1952,
      "british</w>": 1953,
      "tal</w>": 1954,
      "simil": 1955,
      "198": 1956,
      "mer</w>": 1957,
      "ours</w>": 1958,
      "sting</w>": 1959,
      "aster</w>": 1960,
      "earth</w>": 1961,
      "eded</w>": 1962,
      "ples</w>": 1963,
      "cop": 1964,
      "pot": 1965,
      "ple": 1966,
      "196": 1967,
      "ori": 1968,
      "following</w>": 1969,
      "york</w>": 1970,
      "learn</w>": 1971,
      "due</w>": 1972,
      "med": 1973,
      "whether</w>": 1974,
      "bs</w>": 1975,
      "sett": 1976,
      "ency</w>": 1977,
      "ga": 1978,
      "thus</w>": 1979,
      "living</w>": 1980,
      "197": 1981,
      "class</w>": 1982,
      "areas</w>": 1983,
      "there": 1984,
      "foo": 1985,
      "agre": 1986,
      "ize</w>": 1987,
      "bul": 1988,
      "cancer</w>": 1989,
      "long": 1990,
      "tries</w>": 1991,
      "ago</w>": 1992,
      "society</w>": 1993,
      "taken</w>": 1994,
      "espec": 1995,
      "diffic": 1996,
      "ening</w>": 1997,
      "ances</w>": 1998,
      "english</w>": 1999,
      "int": 2000,
      "ering</w>": 2001,
      "economic</w>": 2002,
      "bloo": 2003,
      "ini": 2004,
      "ember</w>": 2005,
      "jour": 2006,
      "necess": 2007,
      "concer": 2008,
      "pap": 2009,
      "him": 2010,
      "ground</w>": 2011,
      "rus": 2012,
      "ination</w>": 2013,
      "dra": 2014,
      "especially</w>": 2015,
      "anti": 2016,
      "report</w>": 2017,
      "speci": 2018,
      "aim": 2019,
      "ele": 2020,
      "standing</w>": 2021,
      "che": 2022,
      "ys</w>": 2023,
      "stand": 2024,
      "influ": 2025,
      "table</w>": 2026,
      "lies</w>": 2027,
      "cir": 2028,
      "sib": 2029,
      "itself</w>": 2030,
      "esti": 2031,
      "ring</w>": 2032,
      "problems</w>": 2033,
      "hand</w>": 2034,
      "ator</w>": 2035,
      "cro": 2036,
      "ley</w>": 2037,
      "nature</w>": 2038,
      "further</w>": 2039,
      "ribu": 2040,
      "nal</w>": 2041,
      "america</w>": 2042,
      "illed</w>": 2043,
      "cy": 2044,
      "aves</w>": 2045,
      "already</w>": 2046,
      "vity</w>": 2047,
      "design": 2048,
      "sug": 2049,
      "chr": 2050,
      "sequ": 2051,
      "colle": 2052,
      "os</w>": 2053,
      "mater": 2054,
      "dar": 2055,
      "data</w>": 2056,
      "liter": 2057,
      "full</w>": 2058,
      "ames</w>": 2059,
      "went</w>": 2060,
      "court</w>": 2061,
      "above</w>": 2062,
      "itary</w>": 2063,
      "higher</w>": 2064,
      "attle</w>": 2065,
      "works</w>": 2066,
      "ls</w>": 2067,
      "amoun": 2068,
      "present</w>": 2069,
      "spo": 2070,
      "avail": 2071,
      "live</w>": 2072,
      "born</w>": 2073,
      "foc": 2074,
      "mic": 2075,
      "app": 2076,
      "class": 2077,
      "11</w>": 2078,
      "bit": 2079,
      "chris": 2080,
      "countries</w>": 2081,
      "international</w>": 2082,
      "provide</w>": 2083,
      "pain": 2084,
      "mean": 2085,
      "actually</w>": 2086,
      "moun": 2087,
      "uary</w>": 2088,
      "christi": 2089,
      "across</w>": 2090,
      "project</w>": 2091,
      "meth": 2092,
      "polic": 2093,
      "cas": 2094,
      "vill": 2095,
      "din": 2096,
      "term</w>": 2097,
      "fully</w>": 2098,
      "grad": 2099,
      "question</w>": 2100,
      "nu": 2101,
      "past</w>": 2102,
      "sic</w>": 2103,
      "built</w>": 2104,
      "lor": 2105,
      "yed</w>": 2106,
      "cause</w>": 2107,
      "served</w>": 2108,
      "glo": 2109,
      "member</w>": 2110,
      "whole</w>": 2111,
      "future</w>": 2112,
      "comes</w>": 2113,
      "que</w>": 2114,
      "dle</w>": 2115,
      "building</w>": 2116,
      "knowledge</w>": 2117,
      "ditional</w>": 2118,
      "turned</w>": 2119,
      "published</w>": 2120,
      "ine": 2121,
      "result</w>": 2122,
      "oned</w>": 2123,
      "force</w>": 2124,
      "bil": 2125,
      "source</w>": 2126,
      "father</w>": 2127,
      "researchers</w>": 2128,
      "14</w>": 2129,
      "construc": 2130,
      "show</w>": 2131,
      "ological</w>": 2132,
      "dom</w>": 2133,
      "cat": 2134,
      "evidence</w>": 2135,
      "cus": 2136,
      "graph": 2137,
      "experience</w>": 2138,
      "mini": 2139,
      "play</w>": 2140,
      "lower</w>": 2141,
      "protec": 2142,
      "tation</w>": 2143,
      "groups</w>": 2144,
      "cases</w>": 2145,
      "inste": 2146,
      "inten": 2147,
      "ounds</w>": 2148,
      "mind</w>": 2149,
      "hen": 2150,
      "ii</w>": 2151,
      "near</w>": 2152,
      "25</w>": 2153,
      "include</w>": 2154,
      "ularly</w>": 2155,
      "himself</w>": 2156,
      "ised</w>": 2157,
      "kind</w>": 2158,
      "sun": 2159,
      "defin": 2160,
      "ined</w>": 2161,
      "studies</w>": 2162,
      "fish</w>": 2163,
      "pho": 2164,
      "answ": 2165,
      "key</w>": 2166,
      "medic": 2167,
      "atten": 2168,
      "roc": 2169,
      "irish</w>": 2170,
      "usually</w>": 2171,
      "eved</w>": 2172,
      "tures</w>": 2173,
      "modern</w>": 2174,
      "marri": 2175,
      "offic": 2176,
      "fil": 2177,
      "anal": 2178,
      "idea</w>": 2179,
      "recogn": 2180,
      "jects</w>": 2181,
      "covered</w>": 2182,
      "ective</w>": 2183,
      "tural</w>": 2184,
      "done</w>": 2185,
      "treatment</w>": 2186,
      "ming</w>": 2187,
      "aster": 2188,
      "road</w>": 2189,
      "viol": 2190,
      "effor": 2191,
      "isl": 2192,
      "press</w>": 2193,
      "hon": 2194,
      "dou": 2195,
      "non</w>": 2196,
      "ask</w>": 2197,
      "late</w>": 2198,
      "fron": 2199,
      "constitu": 2200,
      "available</w>": 2201,
      "mary</w>": 2202,
      "compan": 2203,
      "true</w>": 2204,
      "either</w>": 2205,
      "various</w>": 2206,
      "ged</w>": 2207,
      "ler</w>": 2208,
      "beha": 2209,
      "benef": 2210,
      "ced</w>": 2211,
      "rul": 2212,
      "real</w>": 2213,
      "accoun": 2214,
      "vels</w>": 2215,
      "understand</w>": 2216,
      "fel": 2217,
      "cells</w>": 2218,
      "east</w>": 2219,
      "refer": 2220,
      "interest": 2221,
      "clear</w>": 2222,
      "trav": 2223,
      "oil</w>": 2224,
      "ude</w>": 2225,
      "reading</w>": 2226,
      "wish</w>": 2227,
      "val</w>": 2228,
      "indepen": 2229,
      "bal</w>": 2230,
      "40</w>": 2231,
      "discus": 2232,
      "held</w>": 2233,
      "technology</w>": 2234,
      "stro": 2235,
      "sea</w>": 2236,
      "nation</w>": 2237,
      "ched</w>": 2238,
      "mal": 2239,
      "test</w>": 2240,
      "start</w>": 2241,
      "human": 2242,
      "sep": 2243,
      "tered</w>": 2244,
      "commit": 2245,
      "created</w>": 2246,
      "short</w>": 2247,
      "blood</w>": 2248,
      "heart</w>": 2249,
      "changes</w>": 2250,
      "sil": 2251,
      "med</w>": 2252,
      "behavi": 2253,
      "army</w>": 2254,
      "service</w>": 2255,
      "growth</w>": 2256,
      "nch</w>": 2257,
      "county</w>": 2258,
      "ators</w>": 2259,
      "room</w>": 2260,
      "military</w>": 2261,
      "sense</w>": 2262,
      "interest</w>": 2263,
      "mul": 2264,
      "ingly</w>": 2265,
      "sl": 2266,
      "nei": 2267,
      "night</w>": 2268,
      "priv": 2269,
      "developed</w>": 2270,
      "ners</w>": 2271,
      "pal": 2272,
      "bit</w>": 2273,
      "dings</w>": 2274,
      "ow</w>": 2275,
      "instead</w>": 2276,
      "16</w>": 2277,
      "det": 2278,
      "space</w>": 2279,
      "center</w>": 2280,
      "men": 2281,
      "conditions</w>": 2282,
      "sometimes</w>": 2283,
      "dru": 2284,
      "perha": 2285,
      "oul": 2286,
      "books</w>": 2287,
      "care": 2288,
      "jap": 2289,
      "perhaps</w>": 2290,
      "remo": 2291,
      "ore</w>": 2292,
      "probably</w>": 2293,
      "particip": 2294,
      "clim": 2295,
      "spir": 2296,
      "field</w>": 2297,
      "party</w>": 2298,
      "kids</w>": 2299,
      "ham": 2300,
      "intro": 2301,
      "love</w>": 2302,
      "practi": 2303,
      "unities</w>": 2304,
      "artic": 2305,
      "parts</w>": 2306,
      "student</w>": 2307,
      "through": 2308,
      "ends</w>": 2309,
      "norm": 2310,
      "lands</w>": 2311,
      "aver": 2312,
      "prev": 2313,
      "phil": 2314,
      "fy</w>": 2315,
      "sent</w>": 2316,
      "18</w>": 2317,
      "wid": 2318,
      "island</w>": 2319,
      "mother</w>": 2320,
      "animals</w>": 2321,
      "situ": 2322,
      "increase</w>": 2323,
      "jes": 2324,
      "func": 2325,
      "rit": 2326,
      "ster</w>": 2327,
      "role</w>": 2328,
      "duced</w>": 2329,
      "fail": 2330,
      "believe</w>": 2331,
      "week</w>": 2332,
      "business</w>": 2333,
      "ut": 2334,
      "ational</w>": 2335,
      "estim": 2336,
      "lead</w>": 2337,
      "cannot</w>": 2338,
      "effect</w>": 2339,
      "proper": 2340,
      "famil": 2341,
      "iting</w>": 2342,
      "heav": 2343,
      "formed</w>": 2344,
      "wash": 2345,
      "thous": 2346,
      "aying</w>": 2347,
      "throughout</w>": 2348,
      "six</w>": 2349,
      "occu": 2350,
      "scientists</w>": 2351,
      "exten": 2352,
      "survi": 2353,
      "makes</w>": 2354,
      "months</w>": 2355,
      "ricul": 2356,
      "similar</w>": 2357,
      "13</w>": 2358,
      "achi": 2359,
      "ington</w>": 2360,
      "success": 2361,
      "tiz": 2362,
      "chem": 2363,
      "claim": 2364,
      "town</w>": 2365,
      "open</w>": 2366,
      "compu": 2367,
      "big</w>": 2368,
      "type</w>": 2369,
      "arr": 2370,
      "workers</w>": 2371,
      "simp": 2372,
      "comb": 2373,
      "gress</w>": 2374,
      "taking</w>": 2375,
      "indic": 2376,
      "argu": 2377,
      "prac": 2378,
      "hos": 2379,
      "ox": 2380,
      "reason</w>": 2381,
      "isra": 2382,
      "na</w>": 2383,
      "colon": 2384,
      "french</w>": 2385,
      "ilities</w>": 2386,
      "third</w>": 2387,
      "related</w>": 2388,
      "rest</w>": 2389,
      "federal</w>": 2390,
      "17</w>": 2391,
      "ref": 2392,
      "told</w>": 2393,
      "usti": 2394,
      "news</w>": 2395,
      "weight</w>": 2396,
      "families</w>": 2397,
      "lives</w>": 2398,
      "bab": 2399,
      "pan": 2400,
      "needs</w>": 2401,
      "considered</w>": 2402,
      "ping</w>": 2403,
      "ta</w>": 2404,
      "ops</w>": 2405,
      "strong</w>": 2406,
      "194": 2407,
      "written</w>": 2408,
      "wee": 2409,
      "vil</w>": 2410,
      "contribu": 2411,
      "tit": 2412,
      "recent</w>": 2413,
      "feel</w>": 2414,
      "ached</w>": 2415,
      "movement</w>": 2416,
      "rate</w>": 2417,
      "levels</w>": 2418,
      "syst": 2419,
      "tun": 2420,
      "college</w>": 2421,
      "whose</w>": 2422,
      "opport": 2423,
      "top</w>": 2424,
      "increased</w>": 2425,
      "inst": 2426,
      "brought</w>": 2427,
      "ery</w>": 2428,
      "stern</w>": 2429,
      "teachers</w>": 2430,
      "cle</w>": 2431,
      "lost</w>": 2432,
      "decis": 2433,
      "jan": 2434,
      "previ": 2435,
      "production</w>": 2436,
      "dev": 2437,
      "serve</w>": 2438,
      "music</w>": 2439,
      "evol": 2440,
      "miles</w>": 2441,
      "attemp": 2442,
      "hold</w>": 2443,
      "quite</w>": 2444,
      "therefore</w>": 2445,
      "initi": 2446,
      "medical</w>": 2447,
      "fo": 2448,
      "emer": 2449,
      "seems</w>": 2450,
      "brain</w>": 2451,
      "kin": 2452,
      "ories</w>": 2453,
      "contr": 2454,
      "article</w>": 2455,
      "del</w>": 2456,
      "crip": 2457,
      "african</w>": 2458,
      "exer": 2459,
      "chall": 2460,
      "got</w>": 2461,
      "becom": 2462,
      "psy": 2463,
      "amount</w>": 2464,
      "anted</w>": 2465,
      "revol": 2466,
      "single</w>": 2467,
      "market</w>": 2468,
      "rown</w>": 2469,
      "inning</w>": 2470,
      "avo": 2471,
      "doing</w>": 2472,
      "pul": 2473,
      "central</w>": 2474,
      "continued</w>": 2475,
      "forms</w>": 2476,
      "co</w>": 2477,
      "193": 2478,
      "close</w>": 2479,
      "communic": 2480,
      "middle</w>": 2481,
      "ions</w>": 2482,
      "vin": 2483,
      "plant</w>": 2484,
      "less": 2485,
      "loss</w>": 2486,
      "fall</w>": 2487,
      "ligh": 2488,
      "real": 2489,
      "spi": 2490,
      "england</w>": 2491,
      "gen</w>": 2492,
      "resi": 2493,
      "union</w>": 2494,
      "native</w>": 2495,
      "piec": 2496,
      "don": 2497,
      "earli": 2498,
      "cles</w>": 2499,
      "questions</w>": 2500,
      "longer</w>": 2501,
      "ada</w>": 2502,
      "head": 2503,
      "jesus</w>": 2504,
      "sle": 2505,
      "simply</w>": 2506,
      "lat": 2507,
      "ran": 2508,
      "difficult</w>": 2509,
      "eth": 2510,
      "plants</w>": 2511,
      "depart": 2512,
      "que": 2513,
      "tex": 2514,
      "dow": 2515,
      "ner": 2516,
      "sex": 2517,
      "ships</w>": 2518,
      "region</w>": 2519,
      "ishing</w>": 2520,
      "special</w>": 2521,
      "erous</w>": 2522,
      "oph": 2523,
      "create</w>": 2524,
      "writing</w>": 2525,
      "practice</w>": 2526,
      "date</w>": 2527,
      "sam": 2528,
      "augh": 2529,
      "...</w>": 2530,
      "game</w>": 2531,
      "wide</w>": 2532,
      "post</w>": 2533,
      "verse</w>": 2534,
      "ues</w>": 2535,
      "ate": 2536,
      "europe": 2537,
      "rele": 2538,
      "arri": 2539,
      "hours</w>": 2540,
      "lied</w>": 2541,
      "demo": 2542,
      "popular</w>": 2543,
      "op</w>": 2544,
      "board</w>": 2545,
      "poor</w>": 2546,
      "received</w>": 2547,
      "separ": 2548,
      "fru": 2549,
      "rap": 2550,
      "vision</w>": 2551,
      "justi": 2552,
      "design</w>": 2553,
      "culture</w>": 2554,
      "gation</w>": 2555,
      "western</w>": 2556,
      "active</w>": 2557,
      "ney</w>": 2558,
      "citiz": 2559,
      "sugge": 2560,
      "fire</w>": 2561,
      "prote": 2562,
      "individual</w>": 2563,
      "ching</w>": 2564,
      "esses</w>": 2565,
      "15": 2566,
      "xim": 2567,
      "civil</w>": 2568,
      "relation": 2569,
      "training</w>": 2570,
      "stru": 2571,
      "original</w>": 2572,
      "fem": 2573,
      "atis": 2574,
      "significant</w>": 2575,
      "russi": 2576,
      "pression</w>": 2577,
      "desp": 2578,
      "needed</w>": 2579,
      "services</w>": 2580,
      "particularly</w>": 2581,
      "ists</w>": 2582,
      "sco": 2583,
      "soon</w>": 2584,
      "placed</w>": 2585,
      "hous": 2586,
      "mit": 2587,
      "outh</w>": 2588,
      "woman</w>": 2589,
      "da</w>": 2590,
      "nothing</w>": 2591,
      "net</w>": 2592,
      "ancient</w>": 2593,
      "march</w>": 2594,
      "results</w>": 2595,
      "jewish</w>": 2596,
      "sty": 2597,
      "environment</w>": 2598,
      "sus": 2599,
      "sign</w>": 2600,
      "exerc": 2601,
      "100</w>": 2602,
      "deb": 2603,
      "looking</w>": 2604,
      "activi": 2605,
      "physical</w>": 2606,
      "call</w>": 2607,
      "particular</w>": 2608,
      "europe</w>": 2609,
      "represent": 2610,
      "ets</w>": 2611,
      "occur": 2612,
      "geor": 2613,
      "aca": 2614,
      "nearly</w>": 2615,
      "manag": 2616,
      "cost</w>": 2617,
      "asked</w>": 2618,
      "matter</w>": 2619,
      "necessary</w>": 2620,
      "german</w>": 2621,
      "radi": 2622,
      "saw</w>": 2623,
      "24</w>": 2624,
      "willi": 2625,
      "industry</w>": 2626,
      "china</w>": 2627,
      "crimin": 2628,
      "started</w>": 2629,
      "issue</w>": 2630,
      "top": 2631,
      "gene": 2632,
      "legal</w>": 2633,
      "determin": 2634,
      "run": 2635,
      "team</w>": 2636,
      "run</w>": 2637,
      "goo": 2638,
      "lu": 2639,
      "hand": 2640,
      "personal</w>": 2641,
      "ges</w>": 2642,
      "getting</w>": 2643,
      "bac": 2644,
      "trade</w>": 2645,
      "activity</w>": 2646,
      "effects</w>": 2647,
      "ly": 2648,
      "ma</w>": 2649,
      "outside</w>": 2650,
      "reported</w>": 2651,
      "equi": 2652,
      "june</w>": 2653,
      "policy</w>": 2654,
      "hood</w>": 2655,
      "tar": 2656,
      "wa": 2657,
      "inde": 2658,
      "atures</w>": 2659,
      "coming</w>": 2660,
      "symp": 2661,
      "egyp": 2662,
      "unity</w>": 2663,
      "established</w>": 2664,
      "growing</w>": 2665,
      "tell</w>": 2666,
      "beau": 2667,
      "beginning</w>": 2668,
      "office</w>": 2669,
      "named</w>": 2670,
      "thinking</w>": 2671,
      "enced</w>": 2672,
      "below</w>": 2673,
      "19</w>": 2674,
      "battle</w>": 2675,
      "distric": 2676,
      "cial</w>": 2677,
      "european</w>": 2678,
      "pay</w>": 2679,
      "greater</w>": 2680,
      "davi": 2681,
      "department</w>": 2682,
      "fav": 2683,
      "aci": 2684,
      "22</w>": 2685,
      "religious</w>": 2686,
      "ford</w>": 2687,
      "exist": 2688,
      "ands</w>": 2689,
      "beh": 2690,
      "understanding</w>": 2691,
      "global</w>": 2692,
      "gave</w>": 2693,
      "aug": 2694,
      "page</w>": 2695,
      "rote</w>": 2696,
      "ne</w>": 2697,
      ".)</w>": 2698,
      "lon": 2699,
      "feet</w>": 2700,
      "americans</w>": 2701,
      "access</w>": 2702,
      "bank</w>": 2703,
      "ession</w>": 2704,
      "immedi": 2705,
      "paper</w>": 2706,
      "mach": 2707,
      "essi": 2708,
      "cy</w>": 2709,
      "allow</w>": 2710,
      "sem": 2711,
      "suppor": 2712,
      "wel": 2713,
      "vers</w>": 2714,
      "continue</w>": 2715,
      "tab": 2716,
      "camp": 2717,
      "res": 2718,
      "plan</w>": 2719,
      "imag": 2720,
      "rac": 2721,
      "encour": 2722,
      "secre": 2723,
      "regar": 2724,
      "involved</w>": 2725,
      "wrote</w>": 2726,
      "attention</w>": 2727,
      "gri": 2728,
      "land": 2729,
      "acher</w>": 2730,
      "requ": 2731,
      "caused</w>": 2732,
      "birth</w>": 2733,
      "squ": 2734,
      "195": 2735,
      "patients</w>": 2736,
      "onic</w>": 2737,
      "connec": 2738,
      "extre": 2739,
      "increas": 2740,
      "esn</w>": 2741,
      "issues</w>": 2742,
      "average</w>": 2743,
      "minu": 2744,
      "60</w>": 2745,
      "flo": 2746,
      "mess": 2747,
      "generally</w>": 2748,
      "skills</w>": 2749,
      "public": 2750,
      "musli": 2751,
      "lord</w>": 2752,
      "resources</w>": 2753,
      "bes</w>": 2754,
      "ades</w>": 2755,
      "ided</w>": 2756,
      "essor</w>": 2757,
      "migr": 2758,
      "pose</w>": 2759,
      "liber": 2760,
      "190": 2761,
      "behind</w>": 2762,
      "carri": 2763,
      "trees</w>": 2764,
      "frequ": 2765,
      "simple</w>": 2766,
      "democr": 2767,
      "21</w>": 2768,
      "mom": 2769,
      "ama</w>": 2770,
      "see": 2771,
      "quality</w>": 2772,
      "series</w>": 2773,
      "healthy</w>": 2774,
      "deli": 2775,
      "author</w>": 2776,
      "draw": 2777,
      "addition</w>": 2778,
      "doesn</w>": 2779,
      "front</w>": 2780,
      "dents</w>": 2781,
      "od": 2782,
      "aim</w>": 2783,
      "shows</w>": 2784,
      "mine</w>": 2785,
      "didn</w>": 2786,
      "admini": 2787,
      "tree</w>": 2788,
      "\".</w>": 2789,
      "systems</w>": 2790,
      "despite</w>": 2791,
      "terms</w>": 2792,
      "structure</w>": 2793,
      "dang": 2794,
      "nia</w>": 2795,
      "atic": 2796,
      "theory</w>": 2797,
      "subject</w>": 2798,
      "specific</w>": 2799,
      "brit": 2800,
      "alls</w>": 2801,
      "climate</w>": 2802,
      "activities</w>": 2803,
      "cali": 2804,
      "ger</w>": 2805,
      "northern</w>": 2806,
      "july</w>": 2807,
      "current</w>": 2808,
      "produce</w>": 2809,
      "lying</w>": 2810,
      "rely</w>": 2811,
      "conduc": 2812,
      "washington</w>": 2813,
      "types</w>": 2814,
      "sun</w>": 2815,
      "included</w>": 2816,
      "urity</w>": 2817,
      "numbers</w>": 2818,
      "gir": 2819,
      "event": 2820,
      "ologi": 2821,
      "required</w>": 2822,
      "forces</w>": 2823,
      "transp": 2824,
      "ff</w>": 2825,
      "return</w>": 2826,
      "conn": 2827,
      "bio": 2828,
      "develop</w>": 2829,
      "ecu": 2830,
      "media</w>": 2831,
      "industri": 2832,
      "former</w>": 2833,
      "wood</w>": 2834,
      "agricul": 2835,
      "move</w>": 2836,
      "laws</w>": 2837,
      "value</w>": 2838,
      "someone</w>": 2839,
      "products</w>": 2840,
      "ot</w>": 2841,
      "shall</w>": 2842,
      "quar": 2843,
      "finally</w>": 2844,
      "freed": 2845,
      "actions</w>": 2846,
      "degre": 2847,
      "bring</w>": 2848,
      "accep": 2849,
      "super": 2850,
      "programs</w>": 2851,
      "christian</w>": 2852,
      "aught</w>": 2853,
      "adi": 2854,
      "eth</w>": 2855,
      "added</w>": 2856,
      "mean</w>": 2857,
      "fig": 2858,
      "electr": 2859,
      "teaching</w>": 2860,
      "mc": 2861,
      "cil</w>": 2862,
      "mission</w>": 2863,
      "jews</w>": 2864,
      "ah": 2865,
      "ods</w>": 2866,
      "istic</w>": 2867,
      "share</w>": 2868,
      "gas</w>": 2869,
      "provided</w>": 2870,
      "experim": 2871,
      "dly</w>": 2872,
      "size</w>": 2873,
      "ril</w>": 2874,
      "addre": 2875,
      "teacher</w>": 2876,
      "compe": 2877,
      "prec": 2878,
      "mr</w>": 2879,
      "promis": 2880,
      "ition</w>": 2881,
      "may": 2882,
      "village</w>": 2883,
      "indian</w>": 2884,
      "companies</w>": 2885,
      "ash</w>": 2886,
      "commis": 2887,
      "ails</w>": 2888,
      "animal</w>": 2889,
      "associated</w>": 2890,
      "worked</w>": 2891,
      "william</w>": 2892,
      "refl": 2893,
      "adul": 2894,
      "events</w>": 2895,
      "impact</w>": 2896,
      "david</w>": 2897,
      "prep": 2898,
      "green</w>": 2899,
      "regul": 2900,
      "interpre": 2901,
      "sla": 2902,
      "enty</w>": 2903,
      "produced</w>": 2904,
      "total</w>": 2905,
      "tically</w>": 2906,
      "great": 2907,
      "rup": 2908,
      "ken</w>": 2909,
      "eding</w>": 2910,
      "alist</w>": 2911,
      "legisl": 2912,
      "summer</w>": 2913,
      "cast": 2914,
      "nuc": 2915,
      "gres": 2916,
      "10": 2917,
      "ham</w>": 2918,
      "april</w>": 2919,
      "cut</w>": 2920,
      "success</w>": 2921,
      "ended</w>": 2922,
      "destro": 2923,
      "law": 2924,
      "ideas</w>": 2925,
      "israel</w>": 2926,
      "net": 2927,
      "anything</w>": 2928,
      "sor": 2929,
      "vil": 2930,
      "acts</w>": 2931,
      "lived</w>": 2932,
      "hosp": 2933,
      "chec": 2934,
      "keep": 2935,
      "elling</w>": 2936,
      "meaning</w>": 2937,
      "ecti": 2938,
      "places</w>": 2939,
      "range</w>": 2940,
      "dered</w>": 2941,
      "scen": 2942,
      "muse": 2943,
      "photo": 2944,
      "sh</w>": 2945,
      "rep": 2946,
      "ites</w>": 2947,
      "economy</w>": 2948,
      "temper": 2949,
      "potential</w>": 2950,
      "back": 2951,
      "she": 2952,
      "everyone</w>": 2953,
      "atory</w>": 2954,
      "lack</w>": 2955,
      "answer</w>": 2956,
      "23</w>": 2957,
      "leading</w>": 2958,
      "focus</w>": 2959,
      "freedom</w>": 2960,
      "emo": 2961,
      "month</w>": 2962,
      "2012</w>": 2963,
      "quick": 2964,
      "trying</w>": 2965,
      "lines</w>": 2966,
      "won": 2967,
      "psych": 2968,
      "passed</w>": 2969,
      "normal</w>": 2970,
      "tter</w>": 2971,
      "ana</w>": 2972,
      "olic</w>": 2973,
      "sibility</w>": 2974,
      "inte": 2975,
      "bey": 2976,
      "surve": 2977,
      "build</w>": 2978,
      "safety</w>": 2979,
      "designed</w>": 2980,
      "aving</w>": 2981,
      "recently</w>": 2982,
      "income</w>": 2983,
      "compared</w>": 2984,
      "security</w>": 2985,
      "dol": 2986,
      "wit": 2987,
      "seas": 2988,
      "germany</w>": 2989,
      "won</w>": 2990,
      "model</w>": 2991,
      "na": 2992,
      "police</w>": 2993,
      "association</w>": 2994,
      "earlier</w>": 2995,
      "enjo": 2996,
      "stration</w>": 2997,
      "patter": 2998,
      "employ": 2999,
      "acks</w>": 3000,
      "aste</w>": 3001,
      "safe</w>": 3002,
      "stop</w>": 3003,
      "january</w>": 3004,
      "mac": 3005,
      "ordin": 3006,
      "council</w>": 3007,
      "189": 3008,
      "effective</w>": 3009,
      "professor</w>": 3010,
      "november</w>": 3011,
      "private</w>": 3012,
      "britain</w>": 3013,
      "nucle": 3014,
      "ied</w>": 3015,
      "ker</w>": 3016,
      "dia</w>": 3017,
      "complete</w>": 3018,
      "dy": 3019,
      "manu": 3020,
      "eventually</w>": 3021,
      "beyond</w>": 3022,
      "king": 3023,
      "stom": 3024,
      "explo": 3025,
      "ony</w>": 3026,
      "eling</w>": 3027,
      "uries</w>": 3028,
      "talk</w>": 3029,
      "ier</w>": 3030,
      "entire</w>": 3031,
      "bert</w>": 3032,
      "fle": 3033,
      "alter": 3034,
      "chap": 3035,
      "pped</w>": 3036,
      "cele": 3037,
      "historical</w>": 3038,
      "califor": 3039,
      "daugh": 3040,
      "expen": 3041,
      "offici": 3042,
      "everything</w>": 3043,
      "india</w>": 3044,
      "domin": 3045,
      "construction</w>": 3046,
      "cru": 3047,
      "wise</w>": 3048,
      "stoc": 3049,
      "spring</w>": 3050,
      "perf": 3051,
      "rule</w>": 3052,
      "eat</w>": 3053,
      "186": 3054,
      "26</w>": 3055,
      "whom</w>": 3056,
      "financi": 3057,
      "vention</w>": 3058,
      "strugg": 3059,
      "located</w>": 3060,
      "eful</w>": 3061,
      "object</w>": 3062,
      "capital</w>": 3063,
      "approach</w>": 3064,
      "easy</w>": 3065,
      "bad</w>": 3066,
      "consum": 3067,
      "essed</w>": 3068,
      "stories</w>": 3069,
      "believed</w>": 3070,
      "daily</w>": 3071,
      "california</w>": 3072,
      "band</w>": 3073,
      "demon": 3074,
      "tism</w>": 3075,
      "killed</w>": 3076,
      "neigh": 3077,
      "lun": 3078,
      "engine": 3079,
      "investi": 3080,
      "ggest</w>": 3081,
      "hands</w>": 3082,
      "humans</w>": 3083,
      "wife</w>": 3084,
      "write</w>": 3085,
      "roy": 3086,
      "promo": 3087,
      "rich</w>": 3088,
      "asp": 3089,
      "basic</w>": 3090,
      "difference</w>": 3091,
      "allowed</w>": 3092,
      "clos": 3093,
      "organization</w>": 3094,
      "celebr": 3095,
      "roun": 3096,
      "older</w>": 3097,
      "cath": 3098,
      "environmental</w>": 3099,
      "gal": 3100,
      "sac": 3101,
      "text</w>": 3102,
      "therap": 3103,
      "truth</w>": 3104,
      "swe": 3105,
      "shar": 3106,
      "scientific</w>": 3107,
      "remains</w>": 3108,
      "situation</w>": 3109,
      "note</w>": 3110,
      "southern</w>": 3111,
      "dd": 3112,
      "inj": 3113,
      "chief</w>": 3114,
      "style</w>": 3115,
      "aries</w>": 3116,
      "rob": 3117,
      "figure</w>": 3118,
      "nor</w>": 3119,
      "stone</w>": 3120,
      "developing</w>": 3121,
      "empire</w>": 3122,
      "expected</w>": 3123,
      "list</w>": 3124,
      "stly</w>": 3125,
      "ament</w>": 3126,
      "discovered</w>": 3127,
      "servation</w>": 3128,
      "billion</w>": 3129,
      "cou": 3130,
      "cell</w>": 3131,
      "tou": 3132,
      "takes</w>": 3133,
      "oli": 3134,
      "goes</w>": 3135,
      "consider</w>": 3136,
      "labor</w>": 3137,
      "ban</w>": 3138,
      "ken": 3139,
      "found": 3140,
      "confl": 3141,
      "analys": 3142,
      "computer</w>": 3143,
      "ment": 3144,
      "ads</w>": 3145,
      "neu": 3146,
      "com</w>": 3147,
      "14": 3148,
      "alism</w>": 3149,
      "aul</w>": 3150,
      "austr": 3151,
      "commer": 3152,
      "follow</w>": 3153,
      "80</w>": 3154,
      "james</w>": 3155,
      "repe": 3156,
      "dit</w>": 3157,
      "ush": 3158,
      "points</w>": 3159,
      "london</w>": 3160,
      "lou": 3161,
      "dead</w>": 3162,
      "teen": 3163,
      "communities</w>": 3164,
      "pressed</w>": 3165,
      "christ</w>": 3166,
      "mec": 3167,
      "2010</w>": 3168,
      "rise</w>": 3169,
      "appear</w>": 3170,
      "changed</w>": 3171,
      "nav": 3172,
      "til": 3173,
      "moved</w>": 3174,
      "aft</w>": 3175,
      "princi": 3176,
      "philos": 3177,
      "mas": 3178,
      "provin": 3179,
      "vide": 3180,
      "bran": 3181,
      "visit</w>": 3182,
      "canada</w>": 3183,
      "individuals</w>": 3184,
      "ka</w>": 3185,
      "character</w>": 3186,
      "gin": 3187,
      "deep</w>": 3188,
      "strate": 3189,
      "gets</w>": 3190,
      "drin": 3191,
      "stren": 3192,
      "prot": 3193,
      "octo": 3194,
      "power": 3195,
      "shown</w>": 3196,
      "famous</w>": 3197,
      "forest</w>": 3198,
      "29</w>": 3199,
      "certain": 3200,
      "friends</w>": 3201,
      "october</w>": 3202,
      "mers</w>": 3203,
      "december</w>": 3204,
      "symptom": 3205,
      "quickly</w>": 3206,
      "flow": 3207,
      "compl": 3208,
      "followed</w>": 3209,
      "woo": 3210,
      "sev": 3211,
      "seven</w>": 3212,
      "influence</w>": 3213,
      "leave</w>": 3214,
      "web": 3215,
      "187": 3216,
      "surface</w>": 3217,
      "cape</w>": 3218,
      "traditional</w>": 3219,
      "doub": 3220,
      "septem": 3221,
      "enem": 3222,
      "ext": 3223,
      "nutri": 3224,
      "interesting</w>": 3225,
      "justice</w>": 3226,
      "park</w>": 3227,
      "corpor": 3228,
      "sistance</w>": 3229,
      "begin</w>": 3230,
      "september</w>": 3231,
      "hope</w>": 3232,
      "non": 3233,
      "kets</w>": 3234,
      "material</w>": 3235,
      "streng": 3236,
      "symptoms</w>": 3237,
      "\",</w>": 3238,
      "car</w>": 3239,
      "clear": 3240,
      "mur": 3241,
      "mir": 3242,
      "tory</w>": 3243,
      "stood</w>": 3244,
      "cover</w>": 3245,
      "view": 3246,
      "towards</w>": 3247,
      "account</w>": 3248,
      "prevent</w>": 3249,
      "lig": 3250,
      "libr": 3251,
      "faith</w>": 3252,
      "ior</w>": 3253,
      "seem</w>": 3254,
      "tee</w>": 3255,
      "largest</w>": 3256,
      "nations</w>": 3257,
      "alone</w>": 3258,
      "diag": 3259,
      "aging</w>": 3260,
      "met</w>": 3261,
      "astern</w>": 3262,
      "minist": 3263,
      "larger</w>": 3264,
      "tely</w>": 3265,
      "shor": 3266,
      "forced</w>": 3267,
      "correc": 3268,
      "successful</w>": 3269,
      "mel": 3270,
      "wanted</w>": 3271,
      "habit": 3272,
      "consequ": 3273,
      "185": 3274,
      "remained</w>": 3275,
      "museum</w>": 3276,
      "zed</w>": 3277,
      "anti</w>": 3278,
      "conflic": 3279,
      "reve": 3280,
      "ston</w>": 3281,
      "cities</w>": 3282,
      "foreign</w>": 3283,
      "medicine</w>": 3284,
      "benefits</w>": 3285,
      "august</w>": 3286,
      "brown</w>": 3287,
      "deal</w>": 3288,
      "organiz": 3289,
      "eyes</w>": 3290,
      "nuclear</w>": 3291,
      "hus": 3292,
      "uments</w>": 3293,
      "airs</w>": 3294,
      "described</w>": 3295,
      "efforts</w>": 3296,
      "multi": 3297,
      "pressure</w>": 3298,
      "skin</w>": 3299,
      "birds</w>": 3300,
      "george</w>": 3301,
      "lake</w>": 3302,
      "sent": 3303,
      "record</w>": 3304,
      "indeed</w>": 3305,
      "adults</w>": 3306,
      "bloc": 3307,
      "divi": 3308,
      "serious</w>": 3309,
      "financial</w>": 3310,
      "journal</w>": 3311,
      "standard</w>": 3312,
      "thousands</w>": 3313,
      "pil": 3314,
      "scre": 3315,
      "attack</w>": 3316,
      "learned</w>": 3317,
      "ky</w>": 3318,
      "instruc": 3319,
      "section</w>": 3320,
      "manufac": 3321,
      "recomm": 3322,
      "remember</w>": 3323,
      "limited</w>": 3324,
      "tained</w>": 3325,
      "small": 3326,
      "icient</w>": 3327,
      "ouldn</w>": 3328,
      "weeks</w>": 3329,
      "peace</w>": 3330,
      "marriage</w>": 3331,
      "giving</w>": 3332,
      "exercise</w>": 3333,
      "clin": 3334,
      "variety</w>": 3335,
      "response</w>": 3336,
      "heard</w>": 3337,
      "district</w>": 3338,
      "congress</w>": 3339,
      "tured</w>": 3340,
      "online</w>": 3341,
      "adop": 3342,
      "ests</w>": 3343,
      "spread</w>": 3344,
      "contact</w>": 3345,
      "blo": 3346,
      "tt</w>": 3347,
      "amm": 3348,
      "majority</w>": 3349,
      "property</w>": 3350,
      "practic": 3351,
      "grow</w>": 3352,
      "div": 3353,
      "gue</w>": 3354,
      "factors</w>": 3355,
      "ancy</w>": 3356,
      "appeared</w>": 3357,
      "easily</w>": 3358,
      "mex": 3359,
      "wild</w>": 3360,
      "28</w>": 3361,
      "reduce</w>": 3362,
      "ech</w>": 3363,
      "behavior</w>": 3364,
      "ians</w>": 3365,
      "fear</w>": 3366,
      "leaders</w>": 3367,
      "eless</w>": 3368,
      "positive</w>": 3369,
      "toward</w>": 3370,
      "character": 3371,
      "mexic": 3372,
      "weal": 3373,
      "sym": 3374,
      "tax": 3375,
      "relationship</w>": 3376,
      "pay": 3377,
      "ending</w>": 3378,
      "condition</w>": 3379,
      "fortun": 3380,
      "decided</w>": 3381,
      "primary</w>": 3382,
      "etc</w>": 3383,
      "2011</w>": 3384,
      "cli": 3385,
      "anced</w>": 3386,
      "job</w>": 3387,
      "eating</w>": 3388,
      "hur": 3389,
      "sex</w>": 3390,
      "worth</w>": 3391,
      "territ": 3392,
      "complex</w>": 3393,
      "critical</w>": 3394,
      "basis</w>": 3395,
      "pun": 3396,
      "rit</w>": 3397,
      "africa</w>": 3398,
      "protect</w>": 3399,
      "thom": 3400,
      "offer</w>": 3401,
      "stress</w>": 3402,
      "ather</w>": 3403,
      "schol": 3404,
      "jer": 3405,
      "than": 3406,
      "reduc": 3407,
      "oce": 3408,
      "vege": 3409,
      "analysis</w>": 3410,
      "ty": 3411,
      "completely</w>": 3412,
      "leader</w>": 3413,
      "constitution</w>": 3414,
      "era</w>": 3415,
      "predic": 3416,
      "mark</w>": 3417,
      "neg": 3418,
      "street</w>": 3419,
      "au</w>": 3420,
      "rates</w>": 3421,
      "antly</w>": 3422,
      "perc": 3423,
      "tax</w>": 3424,
      "ww": 3425,
      "france</w>": 3426,
      "previous</w>": 3427,
      "race</w>": 3428,
      "uk</w>": 3429,
      "institute</w>": 3430,
      "bon": 3431,
      "ference</w>": 3432,
      "orities</w>": 3433,
      "graphy</w>": 3434,
      "citizens</w>": 3435,
      "27</w>": 3436,
      "teen</w>": 3437,
      "tual</w>": 3438,
      "sn": 3439,
      "sat": 3440,
      "xi": 3441,
      "chin": 3442,
      "conv": 3443,
      "fif": 3444,
      "eption</w>": 3445,
      "receive</w>": 3446,
      "materi": 3447,
      "atives</w>": 3448,
      "violence</w>": 3449,
      "station</w>": 3450,
      "else</w>": 3451,
      "purpose</w>": 3452,
      "gold</w>": 3453,
      "mol": 3454,
      "rol": 3455,
      "cultural</w>": 3456,
      "tty</w>": 3457,
      "returned</w>": 3458,
      "decision</w>": 3459,
      "ball</w>": 3460,
      "dred</w>": 3461,
      "piece</w>": 3462,
      "demonstr": 3463,
      "internet</w>": 3464,
      "itor</w>": 3465,
      "lions</w>": 3466,
      "syn": 3467,
      "assi": 3468,
      "spent</w>": 3469,
      "deser": 3470,
      "eight</w>": 3471,
      "persons</w>": 3472,
      "avoid</w>": 3473,
      "sound</w>": 3474,
      "goal</w>": 3475,
      "reports</w>": 3476,
      "literature</w>": 3477,
      "minutes</w>": 3478,
      "fast</w>": 3479,
      "step</w>": 3480,
      "titude</w>": 3481,
      "vacc": 3482,
      "tiv": 3483,
      "2009</w>": 3484,
      "distinc": 3485,
      "leng": 3486,
      "rist": 3487,
      "causes</w>": 3488,
      "importance</w>": 3489,
      "responsible</w>": 3490,
      "cum": 3491,
      "remain</w>": 3492,
      "sump": 3493,
      "applic": 3494,
      "meet</w>": 3495,
      "opportunity</w>": 3496,
      "mechan": 3497,
      "mun": 3498,
      "smo": 3499,
      "eli": 3500,
      "kingdom</w>": 3501,
      "fas": 3502,
      "isn</w>": 3503,
      "fuel</w>": 3504,
      "soldi": 3505,
      "advant": 3506,
      "menti": 3507,
      "fication</w>": 3508,
      "highly</w>": 3509,
      "winter</w>": 3510,
      "diagno": 3511,
      "occas": 3512,
      "esis</w>": 3513,
      "colum": 3514,
      "break</w>": 3515,
      "provides</w>": 3516,
      "techni": 3517,
      "professi": 3518,
      "records</w>": 3519,
      "japan</w>": 3520,
      "powerful</w>": 3521,
      "kept</w>": 3522,
      "nes": 3523,
      "aled</w>": 3524,
      "sust": 3525,
      "direct</w>": 3526,
      "person": 3527,
      "execu": 3528,
      "gives</w>": 3529,
      "reasons</w>": 3530,
      "oms</w>": 3531,
      "claim</w>": 3532,
      "religion</w>": 3533,
      "lement</w>": 3534,
      "aff</w>": 3535,
      "generation</w>": 3536,
      "wards</w>": 3537,
      "signed</w>": 3538,
      "played</w>": 3539,
      "sus</w>": 3540,
      "solution</w>": 3541,
      "independent</w>": 3542,
      "sexual</w>": 3543,
      "integr": 3544,
      "daughter</w>": 3545,
      "hit": 3546,
      "anese</w>": 3547,
      "ising</w>": 3548,
      "list": 3549,
      "pregn": 3550,
      "quo": 3551,
      "baby</w>": 3552,
      "cris": 3553,
      "looked</w>": 3554,
      "fran": 3555,
      "pointed</w>": 3556,
      "damage</w>": 3557,
      "hundred</w>": 3558,
      "500</w>": 3559,
      "ute</w>": 3560,
      "respec": 3561,
      "scrip": 3562,
      "additional</w>": 3563,
      "morning</w>": 3564,
      "houses</w>": 3565,
      "aker</w>": 3566,
      "illu": 3567,
      "aware</w>": 3568,
      "challeng": 3569,
      "royal</w>": 3570,
      "bing</w>": 3571,
      "diet</w>": 3572,
      "coast</w>": 3573,
      "control": 3574,
      "san</w>": 3575,
      "saying</w>": 3576,
      "tom</w>": 3577,
      "helped</w>": 3578,
      "supply</w>": 3579,
      "female</w>": 3580,
      "immediately</w>": 3581,
      "tionary</w>": 3582,
      "foods</w>": 3583,
      "effort</w>": 3584,
      "ze": 3585,
      "reached</w>": 3586,
      "roman": 3587,
      "price</w>": 3588,
      "expan": 3589,
      "becomes</w>": 3590,
      "inside</w>": 3591,
      "itation</w>": 3592,
      "febr": 3593,
      "parent</w>": 3594,
      "campai": 3595,
      "mass</w>": 3596,
      "emed</w>": 3597,
      "image</w>": 3598,
      "credit</w>": 3599,
      "entially</w>": 3600,
      "clearly</w>": 3601,
      "inci": 3602,
      "ecting</w>": 3603,
      "notes</w>": 3604,
      "virus</w>": 3605,
      "huge</w>": 3606,
      "prison": 3607,
      "13": 3608,
      "enter": 3609,
      "188": 3610,
      "surroun": 3611,
      "reach</w>": 3612,
      "aches</w>": 3613,
      "vote</w>": 3614,
      "farm</w>": 3615,
      "roman</w>": 3616,
      "phone</w>": 3617,
      "philosoph": 3618,
      "february</w>": 3619,
      "kers</w>": 3620,
      "charles</w>": 3621,
      "employment</w>": 3622,
      "ra</w>": 3623,
      "tin": 3624,
      "ured</w>": 3625,
      "alex": 3626,
      "alized</w>": 3627,
      "roo": 3628,
      "accur": 3629,
      "aks</w>": 3630,
      "protection</w>": 3631,
      "final</w>": 3632,
      "invest": 3633,
      "regular</w>": 3634,
      "picture</w>": 3635,
      "spirit</w>": 3636,
      "minister</w>": 3637,
      "dig": 3638,
      "officials</w>": 3639,
      "eastern</w>": 3640,
      "fat</w>": 3641,
      "knew</w>": 3642,
      "comman": 3643,
      "hear</w>": 3644,
      "184": 3645,
      "directly</w>": 3646,
      "affected</w>": 3647,
      "anyone</w>": 3648,
      "beauti": 3649,
      "eting</w>": 3650,
      "floo": 3651,
      "mit</w>": 3652,
      "extr": 3653,
      "director</w>": 3654,
      "henry</w>": 3655,
      "via</w>": 3656,
      "rail": 3657,
      "visi": 3658,
      "increasing</w>": 3659,
      "bits</w>": 3660,
      "approxim": 3661,
      "sites</w>": 3662,
      "bol": 3663,
      "lic": 3664,
      "oes</w>": 3665,
      "decades</w>": 3666,
      "abor": 3667,
      "heat</w>": 3668,
      "memory</w>": 3669,
      "showed</w>": 3670,
      "gradu": 3671,
      "ap</w>": 3672,
      "hin": 3673,
      "ram": 3674,
      "”.</w>": 3675,
      "add</w>": 3676,
      "version</w>": 3677,
      "event</w>": 3678,
      "coo": 3679,
      "paid</w>": 3680,
      "ections</w>": 3681,
      "traff": 3682,
      "tains</w>": 3683,
      "diseases</w>": 3684,
      "eye</w>": 3685,
      "by": 3686,
      "noted</w>": 3687,
      "cold</w>": 3688,
      "sky</w>": 3689,
      "ae": 3690,
      "win</w>": 3691,
      "meat</w>": 3692,
      "pover": 3693,
      "foundation</w>": 3694,
      "san": 3695,
      "tch</w>": 3696,
      "orders</w>": 3697,
      "discrimin": 3698,
      "wrong</w>": 3699,
      "japanese</w>": 3700,
      "materials</w>": 3701,
      "bill</w>": 3702,
      "green": 3703,
      "choice</w>": 3704,
      "official</w>": 3705,
      "revolution</w>": 3706,
      "sleep</w>": 3707,
      "sav": 3708,
      "za</w>": 3709,
      "||</w>": 3710,
      "dog</w>": 3711,
      "custom": 3712,
      "indians</w>": 3713,
      "organis": 3714,
      "scale</w>": 3715,
      "management</w>": 3716,
      "nation": 3717,
      "purch": 3718,
      "status</w>": 3719,
      "31</w>": 3720,
      "ging</w>": 3721,
      "appears</w>": 3722,
      "leaves</w>": 3723,
      "content</w>": 3724,
      "milk</w>": 3725,
      "capit": 3726,
      "bly</w>": 3727,
      "rou": 3728,
      "aling</w>": 3729,
      "fort</w>": 3730,
      "improve</w>": 3731,
      "pain</w>": 3732,
      "van": 3733,
      "viet": 3734,
      "fight</w>": 3735,
      "fair</w>": 3736,
      "luc": 3737,
      "ssed</w>": 3738,
      "wher": 3739,
      "distri": 3740,
      "catholic</w>": 3741,
      "bom": 3742,
      "master</w>": 3743,
      "thetic</w>": 3744,
      "grand": 3745,
      "authority</w>": 3746,
      "intel": 3747,
      "video</w>": 3748,
      "tol": 3749,
      "staff</w>": 3750,
      "compar": 3751,
      "holy</w>": 3752,
      "poss": 3753,
      "volun": 3754,
      "aths</w>": 3755,
      "committee</w>": 3756,
      "gol": 3757,
      "pon": 3758,
      "ishment</w>": 3759,
      "tters</w>": 3760,
      "distribu": 3761,
      "nic": 3762,
      "teach</w>": 3763,
      "obvi": 3764,
      "respect</w>": 3765,
      "introduced</w>": 3766,
      "bis": 3767,
      "games</w>": 3768,
      "youth</w>": 3769,
      "store</w>": 3770,
      "facts</w>": 3771,
      "2008</w>": 3772,
      "appropri": 3773,
      "carried</w>": 3774,
      "ov": 3775,
      "hic</w>": 3776,
      "bodies</w>": 3777,
      "minim": 3778,
      "house": 3779,
      "thomas</w>": 3780,
      "stay</w>": 3781,
      "figu": 3782,
      "elled</w>": 3783,
      "concept</w>": 3784,
      "method</w>": 3785,
      "felt</w>": 3786,
      "drug</w>": 3787,
      "egypt</w>": 3788,
      "arian</w>": 3789,
      "franc": 3790,
      "views</w>": 3791,
      "function</w>": 3792,
      "degree</w>": 3793,
      "itors</w>": 3794,
      "chance</w>": 3795,
      "dep": 3796,
      "finding</w>": 3797,
      "mid</w>": 3798,
      "natur": 3799,
      "doctor</w>": 3800,
      "smaller</w>": 3801,
      "deep": 3802,
      "figh": 3803,
      "aching</w>": 3804,
      "happened</w>": 3805,
      "bon</w>": 3806,
      "la</w>": 3807,
      "xed</w>": 3808,
      "assem": 3809,
      "const": 3810,
      "academ": 3811,
      "fine</w>": 3812,
      "ok": 3813,
      "decl": 3814,
      "location</w>": 3815,
      "pper</w>": 3816,
      "rock</w>": 3817,
      "rules</w>": 3818,
      "kore": 3819,
      "nur": 3820,
      "emph": 3821,
      "costs</w>": 3822,
      "volum": 3823,
      "chinese</w>": 3824,
      "pass</w>": 3825,
      "sort</w>": 3826,
      "was": 3827,
      "election</w>": 3828,
      "distance</w>": 3829,
      "certainly</w>": 3830,
      "weather</w>": 3831,
      "itable</w>": 3832,
      "defen": 3833,
      "hour</w>": 3834,
      "emis": 3835,
      "strong": 3836,
      "alian</w>": 3837,
      "bridge</w>": 3838,
      "ut</w>": 3839,
      "meeting</w>": 3840,
      "relatively</w>": 3841,
      "competi": 3842,
      "www</w>": 3843,
      "pment</w>": 3844,
      "greek</w>": 3845,
      "hearing</w>": 3846,
      "entary</w>": 3847,
      "color</w>": 3848,
      "farmers</w>": 3849,
      "married</w>": 3850,
      "spirit": 3851,
      "gate</w>": 3852,
      "exac": 3853,
      "2006</w>": 3854,
      "rain": 3855,
      "round</w>": 3856,
      "concentr": 3857,
      "product</w>": 3858,
      "transl": 3859,
      "claimed</w>": 3860,
      "ai</w>": 3861,
      "conclu": 3862,
      "disci": 3863,
      "laun": 3864,
      "2005</w>": 3865,
      "2007</w>": 3866,
      "newsp": 3867,
      "nit": 3868,
      "after": 3869,
      "illing</w>": 3870,
      "dry</w>": 3871,
      "happen</w>": 3872,
      "check</w>": 3873,
      "rab": 3874,
      "ison</w>": 3875,
      "essential</w>": 3876,
      "200</w>": 3877,
      "includes</w>": 3878,
      "your": 3879,
      "ingu": 3880,
      "currently</w>": 3881,
      "muslim</w>": 3882,
      "moment</w>": 3883,
      "teenth</w>": 3884,
      "approximately</w>": 3885,
      "enci": 3886,
      "operation</w>": 3887,
      "foot</w>": 3888,
      "down": 3889,
      "beautiful</w>": 3890,
      "fal": 3891,
      "mad": 3892,
      "forward</w>": 3893,
      "dogs</w>": 3894,
      "twenty</w>": 3895,
      "trial</w>": 3896,
      "numerous</w>": 3897,
      "mentioned</w>": 3898,
      "70</w>": 3899,
      "tary</w>": 3900,
      "diab": 3901,
      "tery</w>": 3902,
      "edly</w>": 3903,
      "autism</w>": 3904,
      "changing</w>": 3905,
      "estimated</w>": 3906,
      "communication</w>": 3907,
      "intellig": 3908,
      "newspap": 3909,
      "ca</w>": 3910,
      "wis": 3911,
      "oring</w>": 3912,
      "tend</w>": 3913,
      "archit": 3914,
      "bacter": 3915,
      "survey</w>": 3916,
      "len": 3917,
      "refu": 3918,
      "alo": 3919,
      "blue</w>": 3920,
      "tried</w>": 3921,
      "alists</w>": 3922,
      "ailed</w>": 3923,
      "demand</w>": 3924,
      "dark</w>": 3925,
      "methods</w>": 3926,
      "genetic</w>": 3927,
      "base</w>": 3928,
      "paul</w>": 3929,
      "virgin": 3930,
      "friend</w>": 3931,
      "founded</w>": 3932,
      "poverty</w>": 3933,
      "bes": 3934,
      "troops</w>": 3935,
      "bullying</w>": 3936,
      "season</w>": 3937,
      "cross</w>": 3938,
      "door</w>": 3939,
      "autom": 3940,
      "gone</w>": 3941,
      "ny</w>": 3942,
      "un</w>": 3943,
      "coal</w>": 3944,
      "earth": 3945,
      "izing</w>": 3946,
      "elev": 3947,
      "statement</w>": 3948,
      "emphas": 3949,
      "lay": 3950,
      "abilities</w>": 3951,
      "exhi": 3952,
      "forman": 3953,
      "secon": 3954,
      "educational</w>": 3955,
      "appear": 3956,
      "brother</w>": 3957,
      "message</w>": 3958,
      "fall": 3959,
      "christ": 3960,
      "hiv</w>": 3961,
      "standards</w>": 3962,
      "mass": 3963,
      "sli": 3964,
      "ership</w>": 3965,
      "arily</w>": 3966,
      "parli": 3967,
      "web</w>": 3968,
      "creating</w>": 3969,
      "gun</w>": 3970,
      "core</w>": 3971,
      "unique</w>": 3972,
      "equal</w>": 3973,
      "separate</w>": 3974,
      "conflict</w>": 3975,
      "charge</w>": 3976,
      "identified</w>": 3977,
      "taught</w>": 3978,
      "enge</w>": 3979,
      "grav": 3980,
      "moon</w>": 3981,
      "buildings</w>": 3982,
      "benefit</w>": 3983,
      "extrem": 3984,
      "commercial</w>": 3985,
      "lers</w>": 3986,
      "wall</w>": 3987,
      "guid": 3988,
      "garden</w>": 3989,
      "mitted</w>": 3990,
      "tis</w>": 3991,
      "orial</w>": 3992,
      "acqu": 3993,
      "asia</w>": 3994,
      "aint</w>": 3995,
      "valley</w>": 3996,
      "explain</w>": 3997,
      "determined</w>": 3998,
      "hospital</w>": 3999,
      "35</w>": 4000,
      "90</w>": 4001,
      "reality</w>": 4002,
      "tin</w>": 4003,
      "conf": 4004,
      "ayed</w>": 4005,
      "canadi": 4006,
      "collection</w>": 4007,
      "names</w>": 4008,
      "ologist</w>": 4009,
      "kes</w>": 4010,
      "pas": 4011,
      "soil</w>": 4012,
      "veh": 4013,
      "equipment</w>": 4014,
      "male</w>": 4015,
      "vit": 4016,
      "bot": 4017,
      "audi": 4018,
      "child": 4019,
      "centuries</w>": 4020,
      "commission</w>": 4021,
      "lam": 4022,
      "tici": 4023,
      "ald</w>": 4024,
      "what": 4025,
      "geo": 4026,
      "alities</w>": 4027,
      "harv": 4028,
      "starting</w>": 4029,
      "micro": 4030,
      "essing</w>": 4031,
      "mathem": 4032,
      "solar</w>": 4033,
      "craft</w>": 4034,
      "domes": 4035,
      "gall": 4036,
      "zi": 4037,
      "letter</w>": 4038,
      "portion</w>": 4039,
      "signs</w>": 4040,
      "annual</w>": 4041,
      "horse</w>": 4042,
      "released</w>": 4043,
      "yourself</w>": 4044,
      "raised</w>": 4045,
      "join": 4046,
      "camp</w>": 4047,
      "library</w>": 4048,
      "lin</w>": 4049,
      "2000</w>": 4050,
      "treated</w>": 4051,
      "speaking</w>": 4052,
      "aes": 4053,
      "avi": 4054,
      "defe": 4055,
      "code</w>": 4056,
      "except</w>": 4057,
      "please</w>": 4058,
      "introduc": 4059,
      "becoming</w>": 4060,
      "running</w>": 4061,
      "square</w>": 4062,
      "industrial</w>": 4063,
      "gor": 4064,
      "ot": 4065,
      "slow": 4066,
      "stage</w>": 4067,
      "performan": 4068,
      "mostly</w>": 4069,
      "gency</w>": 4070,
      "bia</w>": 4071,
      "drugs</w>": 4072,
      "leadership</w>": 4073,
      "identify</w>": 4074,
      "ensure</w>": 4075,
      "acted</w>": 4076,
      "adult</w>": 4077,
      "akers</w>": 4078,
      "helps</w>": 4079,
      "examples</w>": 4080,
      "patient</w>": 4081,
      "severe</w>": 4082,
      "virginia</w>": 4083,
      "//</w>": 4084,
      "die</w>": 4085,
      "descrip": 4086,
      "independence</w>": 4087,
      "heavy</w>": 4088,
      "therapy</w>": 4089,
      "plans</w>": 4090,
      "flu": 4091,
      "tradition</w>": 4092,
      "suggests</w>": 4093,
      "ym": 4094,
      "adap": 4095,
      "ultim": 4096,
      "speech</w>": 4097,
      "require</w>": 4098,
      "length</w>": 4099,
      "sumption</w>": 4100,
      "fell</w>": 4101,
      "ga</w>": 4102,
      "wind</w>": 4103,
      "elements</w>": 4104,
      "2004</w>": 4105,
      "overall</w>": 4106,
      "choose</w>": 4107,
      "classroom</w>": 4108,
      "attempt</w>": 4109,
      "address</w>": 4110,
      "pit": 4111,
      "tian</w>": 4112,
      "flor": 4113,
      "bible</w>": 4114,
      "rural</w>": 4115,
      "leaving</w>": 4116,
      "moving</w>": 4117,
      "treat</w>": 4118,
      "threat": 4119,
      "institutions</w>": 4120,
      "fruit</w>": 4121,
      "administration</w>": 4122,
      "findings</w>": 4123,
      "pping</w>": 4124,
      "45</w>": 4125,
      "sight</w>": 4126,
      "experienced</w>": 4127,
      "occurred</w>": 4128,
      "vehic": 4129,
      "usual</w>": 4130,
      "aded</w>": 4131,
      "nel</w>": 4132,
      "offered</w>": 4133,
      "providing</w>": 4134,
      "originally</w>": 4135,
      "challenge</w>": 4136,
      "russia</w>": 4137,
      "fare</w>": 4138,
      "yes</w>": 4139,
      "stin": 4140,
      "elected</w>": 4141,
      "convers": 4142,
      "authorities</w>": 4143,
      "greatest</w>": 4144,
      "dest</w>": 4145,
      "htt": 4146,
      "tations</w>": 4147,
      "restric": 4148,
      "ales</w>": 4149,
      "grew</w>": 4150,
      "contem": 4151,
      "surpris": 4152,
      "virtu": 4153,
      "regim": 4154,
      "highest</w>": 4155,
      "determine</w>": 4156,
      "boun": 4157,
      "useful</w>": 4158,
      "porary</w>": 4159,
      "deri": 4160,
      "interested</w>": 4161,
      "latter</w>": 4162,
      "dance</w>": 4163,
      "fying</w>": 4164,
      "proper</w>": 4165,
      "ques</w>": 4166,
      "creation</w>": 4167,
      "speak</w>": 4168,
      "measure</w>": 4169,
      "machine</w>": 4170,
      "exactly</w>": 4171,
      "va</w>": 4172,
      "ani": 4173,
      "star</w>": 4174,
      "letters</w>": 4175,
      "aps</w>": 4176,
      "worl": 4177,
      "mani": 4178,
      "classes</w>": 4179,
      "kar": 4180,
      "nine</w>": 4181,
      "statis": 4182,
      "deman": 4183,
      "disco": 4184,
      "homes</w>": 4185,
      "struggle</w>": 4186,
      "batt": 4187,
      "fer</w>": 4188,
      "ises</w>": 4189,
      "tea</w>": 4190,
      "fields</w>": 4191,
      "neither</w>": 4192,
      "prepared</w>": 4193,
      "enemy</w>": 4194,
      "discovery</w>": 4195,
      "://</w>": 4196,
      "four": 4197,
      "thou": 4198,
      "arts</w>": 4199,
      "presence</w>": 4200,
      "husband</w>": 4201,
      "crisis</w>": 4202,
      "hit</w>": 4203,
      "narr": 4204,
      "ror</w>": 4205,
      "suggest</w>": 4206,
      "entation</w>": 4207,
      "tools</w>": 4208,
      "playing</w>": 4209,
      "opportunities</w>": 4210,
      "bay</w>": 4211,
      "reduced</w>": 4212,
      "sud": 4213,
      "moral</w>": 4214,
      "affect</w>": 4215,
      "agreement</w>": 4216,
      "previously</w>": 4217,
      "republic</w>": 4218,
      "spr": 4219,
      "stream</w>": 4220,
      "typically</w>": 4221,
      "dates</w>": 4222,
      "path": 4223,
      "alia</w>": 4224,
      "acked</w>": 4225,
      "iry</w>": 4226,
      "tests</w>": 4227,
      "direction</w>": 4228,
      "requires</w>": 4229,
      "32</w>": 4230,
      "fos": 4231,
      "nas": 4232,
      "inated</w>": 4233,
      "ane</w>": 4234,
      "life": 4235,
      "progress</w>": 4236,
      "command</w>": 4237,
      "feeling</w>": 4238,
      "stic</w>": 4239,
      "blin</w>": 4240,
      "guar": 4241,
      "steps</w>": 4242,
      "actual</w>": 4243,
      "russian</w>": 4244,
      "lad": 4245,
      "nar": 4246,
      "lots</w>": 4247,
      "phen": 4248,
      "governments</w>": 4249,
      "powers</w>": 4250,
      "etes</w>": 4251,
      "broad": 4252,
      "maybe</w>": 4253,
      "website</w>": 4254,
      "fit": 4255,
      "gan</w>": 4256,
      "kings</w>": 4257,
      "tili": 4258,
      "ecture</w>": 4259,
      "grade</w>": 4260,
      "wild": 4261,
      "serving</w>": 4262,
      "turning</w>": 4263,
      "ongs</w>": 4264,
      "happy</w>": 4265,
      "occur</w>": 4266,
      "soldiers</w>": 4267,
      "bc</w>": 4268,
      "sses</w>": 4269,
      "satis": 4270,
      "shot</w>": 4271,
      "evil</w>": 4272,
      "ce": 4273,
      "review</w>": 4274,
      "robert</w>": 4275,
      "advis": 4276,
      "agency</w>": 4277,
      "versi": 4278,
      "meant</w>": 4279,
      "watch</w>": 4280,
      "difficul": 4281,
      "ocean</w>": 4282,
      "ids</w>": 4283,
      "shel": 4284,
      "appre": 4285,
      "possib": 4286,
      "search</w>": 4287,
      "differences</w>": 4288,
      "maintain</w>": 4289,
      "2013</w>": 4290,
      "circum": 4291,
      "details</w>": 4292,
      "destroyed</w>": 4293,
      "confir": 4294,
      "images</w>": 4295,
      "lam</w>": 4296,
      "connection</w>": 4297,
      "dary</w>": 4298,
      "hill</w>": 4299,
      "absol": 4300,
      "sume</w>": 4301,
      "exist</w>": 4302,
      "travel</w>": 4303,
      "failed</w>": 4304,
      "chapter</w>": 4305,
      "wealth</w>": 4306,
      "rang": 4307,
      "stated</w>": 4308,
      "completed</w>": 4309,
      "hundre": 4310,
      "existence</w>": 4311,
      "temperature</w>": 4312,
      "where": 4313,
      "pin": 4314,
      "oud</w>": 4315,
      "ague</w>": 4316,
      "post": 4317,
      "tren": 4318,
      "carbon</w>": 4319,
      "career</w>": 4320,
      "claims</w>": 4321,
      "frequently</w>": 4322,
      "organizations</w>": 4323,
      "negative</w>": 4324,
      "performance</w>": 4325,
      "parties</w>": 4326,
      "speed</w>": 4327,
      "salt</w>": 4328,
      "arrived</w>": 4329,
      "diabetes</w>": 4330,
      "filled</w>": 4331,
      "gam": 4332,
      "ton": 4333,
      "alu": 4334,
      "attitude</w>": 4335,
      "ump</w>": 4336,
      "subjects</w>": 4337,
      "berg</w>": 4338,
      "transm": 4339,
      "gger</w>": 4340,
      "announ": 4341,
      "easier</w>": 4342,
      "mexico</w>": 4343,
      "campaign</w>": 4344,
      "gain</w>": 4345,
      "send</w>": 4346,
      "iter": 4347,
      "network</w>": 4348,
      "ck</w>": 4349,
      "asi": 4350,
      "pedia</w>": 4351,
      "prior</w>": 4352,
      "temple</w>": 4353,
      "largely</w>": 4354,
      "removed</w>": 4355,
      "conducted</w>": 4356,
      "astr": 4357,
      "jun": 4358,
      "rad": 4359,
      "sets</w>": 4360,
      "tox": 4361,
      "politics</w>": 4362,
      "agriculture</w>": 4363,
      "wasn</w>": 4364,
      "extremely</w>": 4365,
      "ol</w>": 4366,
      "pa": 4367,
      "thro": 4368,
      "remar": 4369,
      "trou": 4370,
      "contains</w>": 4371,
      "balance</w>": 4372,
      "analy": 4373,
      "figures</w>": 4374,
      "http</w>": 4375,
      "ander</w>": 4376,
      "pretty</w>": 4377,
      "carry</w>": 4378,
      "effecti": 4379,
      "islam": 4380,
      "?”</w>": 4381,
      "ba": 4382,
      "les": 4383,
      "sold</w>": 4384,
      "confi": 4385,
      "consist": 4386,
      "fortunately</w>": 4387,
      "discrimination</w>": 4388,
      "hundreds</w>": 4389,
      "pp</w>": 4390,
      "cham": 4391,
      "ush</w>": 4392,
      "grand</w>": 4393,
      "cars</w>": 4394,
      "famili": 4395,
      "advoc": 4396,
      "planet</w>": 4397,
      "referred</w>": 4398,
      "tables</w>": 4399,
      "bow": 4400,
      "islands</w>": 4401,
      "gies</w>": 4402,
      "prices</w>": 4403,
      "volume</w>": 4404,
      "canadian</w>": 4405,
      ");</w>": 4406,
      "fit</w>": 4407,
      "one": 4408,
      "atlan": 4409,
      "imm": 4410,
      "allows</w>": 4411,
      "spiritual</w>": 4412,
      "12": 4413,
      "cast</w>": 4414,
      "stances</w>": 4415,
      "projects</w>": 4416,
      "valu": 4417,
      "holds</w>": 4418,
      "ba</w>": 4419,
      "rs</w>": 4420,
      "anish</w>": 4421,
      "icals</w>": 4422,
      "ils</w>": 4423,
      "180": 4424,
      "transi": 4425,
      "succe": 4426,
      "tionally</w>": 4427,
      "employed</w>": 4428,
      "gather": 4429,
      "practices</w>": 4430,
      "sen</w>": 4431,
      "sof": 4432,
      "obj": 4433,
      "historic</w>": 4434,
      "mountain</w>": 4435,
      "regarding</w>": 4436,
      "province</w>": 4437,
      "territory</w>": 4438,
      "whatever</w>": 4439,
      "sons</w>": 4440,
      "bud": 4441,
      "ides</w>": 4442,
      "pre</w>": 4443,
      "thousand</w>": 4444,
      "perfect</w>": 4445,
      "ie</w>": 4446,
      "paci": 4447,
      "upper</w>": 4448,
      "seemed</w>": 4449,
      "owners</w>": 4450,
      "poly": 4451,
      "widely</w>": 4452,
      "keeping</w>": 4453,
      "domestic</w>": 4454,
      "attrac": 4455,
      "icity</w>": 4456,
      "phere</w>": 4457,
      "studied</w>": 4458,
      "journ": 4459,
      "lati": 4460,
      "acity</w>": 4461,
      "eled</w>": 4462,
      "factor</w>": 4463,
      "jobs</w>": 4464,
      "shape</w>": 4465,
      "film</w>": 4466,
      "supported</w>": 4467,
      "75</w>": 4468,
      "rying</w>": 4469,
      "tap": 4470,
      "opened</w>": 4471,
      "marine</w>": 4472,
      "drive</w>": 4473,
      "professional</w>": 4474,
      "bility</w>": 4475,
      "fla": 4476,
      "ored</w>": 4477,
      "sin</w>": 4478,
      "expos": 4479,
      "fun</w>": 4480,
      "chemical</w>": 4481,
      "seeing</w>": 4482,
      "strength</w>": 4483,
      "controlled</w>": 4484,
      "bun": 4485,
      "thu": 4486,
      "onto</w>": 4487,
      "sion": 4488,
      "conclud": 4489,
      "spor": 4490,
      "subsequ": 4491,
      "graphic</w>": 4492,
      "measures</w>": 4493,
      "accepted</w>": 4494,
      "appropriate</w>": 4495,
      "bottom</w>": 4496,
      "--": 4497,
      "crow": 4498,
      "sell</w>": 4499,
      "slow</w>": 4500,
      "save</w>": 4501,
      "urban</w>": 4502,
      "testing</w>": 4503,
      "joined</w>": 4504,
      "governor</w>": 4505,
      "print</w>": 4506,
      "hunting</w>": 4507,
      "none</w>": 4508,
      "islam</w>": 4509,
      "six": 4510,
      "features</w>": 4511,
      "genes</w>": 4512,
      "guide</w>": 4513,
      "belief</w>": 4514,
      "excell": 4515,
      "regions</w>": 4516,
      "texas</w>": 4517,
      "manufactur": 4518,
      "academic</w>": 4519,
      "noti": 4520,
      "threat</w>": 4521,
      "evolution</w>": 4522,
      "susp": 4523,
      "atmos": 4524,
      "manner</w>": 4525,
      "cott": 4526,
      "captain</w>": 4527,
      "neighb": 4528,
      "af</w>": 4529,
      "other": 4530,
      "waste</w>": 4531,
      "insul": 4532,
      "weap": 4533,
      "commonly</w>": 4534,
      "gene</w>": 4535,
      "looks</w>": 4536,
      "pursu": 4537,
      "categ": 4538,
      "existing</w>": 4539,
      "depression</w>": 4540,
      "poll": 4541,
      "efs</w>": 4542,
      "values</w>": 4543,
      "sis</w>": 4544,
      "inher": 4545,
      "boat</w>": 4546,
      "math</w>": 4547,
      "waters</w>": 4548,
      "release</w>": 4549,
      "agricultural</w>": 4550,
      "divided</w>": 4551,
      "tant</w>": 4552,
      "amin</w>": 4553,
      "now": 4554,
      "destruc": 4555,
      "hot</w>": 4556,
      "responsibility</w>": 4557,
      "sugar</w>": 4558,
      "intended</w>": 4559,
      "correct</w>": 4560,
      "dw": 4561,
      "sa</w>": 4562,
      "eral</w>": 4563,
      "buy</w>": 4564,
      "viet</w>": 4565,
      "walk</w>": 4566,
      "pleas": 4567,
      "applied</w>": 4568,
      "failure</w>": 4569,
      "pieces</w>": 4570,
      "viewed</w>": 4571,
      "sand": 4572,
      "”,</w>": 4573,
      "ino": 4574,
      "hair</w>": 4575,
      "unit</w>": 4576,
      "box</w>": 4577,
      "presented</w>": 4578,
      "clean</w>": 4579,
      "experiences</w>": 4580,
      "continues</w>": 4581,
      "participants</w>": 4582,
      "ee</w>": 4583,
      "im</w>": 4584,
      "stop": 4585,
      "opin": 4586,
      "dublin</w>": 4587,
      "descen": 4588,
      "draw</w>": 4589,
      "dated</w>": 4590,
      "pel": 4591,
      "amaz": 4592,
      "consci": 4593,
      "believ": 4594,
      "grown</w>": 4595,
      "illustr": 4596,
      "rout": 4597,
      "slo": 4598,
      "utionary</w>": 4599,
      "yel": 4600,
      "lie</w>": 4601,
      "legi": 4602,
      "compre": 4603,
      "modi": 4604,
      "wei": 4605,
      "disorder</w>": 4606,
      "relation</w>": 4607,
      "smith</w>": 4608,
      "recognized</w>": 4609,
      "protein</w>": 4610,
      "acade": 4611,
      "favor": 4612,
      "ologists</w>": 4613,
      "alternative</w>": 4614,
      "supre": 4615,
      "arely</w>": 4616,
      "specific": 4617,
      "objects</w>": 4618,
      "dram": 4619,
      "etary</w>": 4620,
      "agree</w>": 4621,
      "girls</w>": 4622,
      "opinion</w>": 4623,
      "flow</w>": 4624,
      "gro": 4625,
      "ya</w>": 4626,
      "tile</w>": 4627,
      "acci": 4628,
      "aids</w>": 4629,
      "experts</w>": 4630,
      "dangerous</w>": 4631,
      "mathematic": 4632,
      "aqu": 4633,
      "uk": 4634,
      "arc": 4635,
      "arity</w>": 4636,
      "exposed</w>": 4637,
      "interests</w>": 4638,
      "millions</w>": 4639,
      "writer</w>": 4640,
      "occup": 4641,
      "emergency</w>": 4642,
      "itive</w>": 4643,
      "lay</w>": 4644,
      "tail</w>": 4645,
      "rer</w>": 4646,
      "conver": 4647,
      "complic": 4648,
      "planning</w>": 4649,
      "volunte": 4650,
      "kil": 4651,
      "rements</w>": 4652,
      "title</w>": 4653,
      "sir</w>": 4654,
      "ading</w>": 4655,
      "model": 4656,
      "lock</w>": 4657,
      "2002</w>": 4658,
      "authors</w>": 4659,
      "operations</w>": 4660,
      "bene": 4661,
      "infection</w>": 4662,
      "transpor": 4663,
      "extent</w>": 4664,
      "fighting</w>": 4665,
      "ade": 4666,
      "ha</w>": 4667,
      "tac": 4668,
      "tells</w>": 4669,
      "iron</w>": 4670,
      "paris</w>": 4671,
      "origin</w>": 4672,
      "instance</w>": 4673,
      "doubt</w>": 4674,
      "300</w>": 4675,
      "pa</w>": 4676,
      "iled</w>": 4677,
      "forming</w>": 4678,
      "formation</w>": 4679,
      "ferred</w>": 4680,
      "ggs</w>": 4681,
      "reason": 4682,
      "goods</w>": 4683,
      "ville</w>": 4684,
      "ordinary</w>": 4685,
      "insur": 4686,
      "arab": 4687,
      "perspec": 4688,
      "19th</w>": 4689,
      "offers</w>": 4690,
      "concerned</w>": 4691,
      "slaves</w>": 4692,
      "encies</w>": 4693,
      "sel</w>": 4694,
      "ght": 4695,
      "bled</w>": 4696,
      "carol": 4697,
      "fundam": 4698,
      "happens</w>": 4699,
      "lesson</w>": 4700,
      "expensive</w>": 4701,
      "advantage</w>": 4702,
      "iii</w>": 4703,
      "ino</w>": 4704,
      "mile</w>": 4705,
      "atters</w>": 4706,
      "organized</w>": 4707,
      "talking</w>": 4708,
      "showing</w>": 4709,
      "archi": 4710,
      "recorded</w>": 4711,
      "achiev": 4712,
      "suggested</w>": 4713,
      "nam</w>": 4714,
      "rome</w>": 4715,
      "poses</w>": 4716,
      "richard</w>": 4717,
      "2003</w>": 4718,
      "victim": 4719,
      "officers</w>": 4720,
      "otherwise</w>": 4721,
      "cab": 4722,
      "ph</w>": 4723,
      "vement</w>": 4724,
      "ital": 4725,
      "ame": 4726,
      "unless</w>": 4727,
      "explan": 4728,
      "enting</w>": 4729,
      "ida</w>": 4730,
      "banks</w>": 4731,
      "doctors</w>": 4732,
      "reference</w>": 4733,
      "slavery</w>": 4734,
      "ble": 4735,
      "but": 4736,
      "observed</w>": 4737,
      "health": 4738,
      "link</w>": 4739,
      "broken</w>": 4740,
      "kill</w>": 4741,
      "walls</w>": 4742,
      "lets</w>": 4743,
      "desire</w>": 4744,
      "ficial</w>": 4745,
      "slave</w>": 4746,
      "pacific</w>": 4747,
      "task</w>": 4748,
      "voc": 4749,
      "wol": 4750,
      "arms</w>": 4751,
      "accompl": 4752,
      "immigr": 4753,
      "disaster</w>": 4754,
      "ency": 4755,
      "fresh</w>": 4756,
      "relations</w>": 4757,
      "fair": 4758,
      "articles</w>": 4759,
      "principles</w>": 4760,
      "bacteria</w>": 4761,
      "wildlife</w>": 4762,
      "dna</w>": 4763,
      "kid": 4764,
      "sides</w>": 4765,
      "proposed</w>": 4766,
      "evalu": 4767,
      "concern</w>": 4768,
      "queen</w>": 4769,
      "muslims</w>": 4770,
      "australia</w>": 4771,
      "gun": 4772,
      "arm": 4773,
      "alty</w>": 4774,
      "ation": 4775,
      "expe": 4776,
      "capacity</w>": 4777,
      "stands</w>": 4778,
      "agreed</w>": 4779,
      "rain</w>": 4780,
      "reven": 4781,
      "prise</w>": 4782,
      "understood</w>": 4783,
      "princip": 4784,
      "hydro": 4785,
      "victor": 4786,
      "fish": 4787,
      "wants</w>": 4788,
      "secret</w>": 4789,
      "kenne": 4790,
      "neuro": 4791,
      "astic</w>": 4792,
      "democratic</w>": 4793,
      "taxes</w>": 4794,
      "ab</w>": 4795,
      "bat": 4796,
      "prohi": 4797,
      "apart</w>": 4798,
      "boys</w>": 4799,
      "identity</w>": 4800,
      "achieve</w>": 4801,
      "residents</w>": 4802,
      "occurs</w>": 4803,
      "castle</w>": 4804,
      "alexander</w>": 4805,
      "aesthetic</w>": 4806,
      "34</w>": 4807,
      "naz": 4808,
      "zz": 4809,
      "rose</w>": 4810,
      "impossible</w>": 4811,
      "gender</w>": 4812,
      "helping</w>": 4813,
      "physici": 4814,
      "sufficient</w>": 4815,
      "mountains</w>": 4816,
      "encourage</w>": 4817,
      "atically</w>": 4818,
      "scene</w>": 4819,
      "pattern</w>": 4820,
      "investig": 4821,
      "encyclo": 4822,
      "sounds</w>": 4823,
      "wer</w>": 4824,
      "innov": 4825,
      "encoun": 4826,
      "depos": 4827,
      "conserv": 4828,
      "train</w>": 4829,
      "ums</w>": 4830,
      "hebre": 4831,
      "ance": 4832,
      "member": 4833,
      "bird</w>": 4834,
      "cycle</w>": 4835,
      "decisions</w>": 4836,
      "lightly</w>": 4837,
      "scot": 4838,
      "connected</w>": 4839,
      "discipl": 4840,
      "academy</w>": 4841,
      "mouth</w>": 4842,
      "ene</w>": 4843,
      "advice</w>": 4844,
      "centre</w>": 4845,
      "discussion</w>": 4846,
      "extreme</w>": 4847,
      "couple</w>": 4848,
      "route</w>": 4849,
      "declared</w>": 4850,
      "stic": 4851,
      "song</w>": 4852,
      "notic": 4853,
      "spanish</w>": 4854,
      "assass": 4855,
      "eigh": 4856,
      "miss": 4857,
      "linked</w>": 4858,
      "burg</w>": 4859,
      "prince</w>": 4860,
      "radio</w>": 4861,
      "ax": 4862,
      "org</w>": 4863,
      "detec": 4864,
      "setting</w>": 4865,
      "boy</w>": 4866,
      "aren</w>": 4867,
      "contain</w>": 4868,
      "flu</w>": 4869,
      "concep": 4870,
      "myster": 4871,
      "multiple</w>": 4872,
      "36</w>": 4873,
      "gul": 4874,
      "aut": 4875,
      "solve</w>": 4876,
      "closed</w>": 4877,
      "proced": 4878,
      "issued</w>": 4879,
      "docum": 4880,
      "device</w>": 4881,
      "debt</w>": 4882,
      "floor</w>": 4883,
      "familiar</w>": 4884,
      "pes</w>": 4885,
      "vul": 4886,
      "armed</w>": 4887,
      "dedic": 4888,
      "oppos": 4889,
      "perman": 4890,
      "supposed</w>": 4891,
      "33</w>": 4892,
      "hop</w>": 4893,
      "alled</w>": 4894,
      "turns</w>": 4895,
      "rich": 4896,
      "2001</w>": 4897,
      "valent</w>": 4898,
      "taining</w>": 4899,
      "patterns</w>": 4900,
      "1st</w>": 4901,
      "ang</w>": 4902,
      "spend</w>": 4903,
      "teeth</w>": 4904,
      "marily</w>": 4905,
      "serves</w>": 4906,
      "facilities</w>": 4907,
      "attacks</w>": 4908,
      "map</w>": 4909,
      "explained</w>": 4910,
      "adequ": 4911,
      "jected</w>": 4912,
      "entered</w>": 4913,
      "conservation</w>": 4914,
      "inging</w>": 4915,
      "color": 4916,
      "syri": 4917,
      "mist": 4918,
      "josep": 4919,
      "accept</w>": 4920,
      "writers</w>": 4921,
      "kinds</w>": 4922,
      "joseph</w>": 4923,
      "ssing</w>": 4924,
      "oral</w>": 4925,
      "ado</w>": 4926,
      "forc": 4927,
      "angel": 4928,
      "stanti": 4929,
      "arrang": 4930,
      "stock</w>": 4931,
      "sacri": 4932,
      "victims</w>": 4933,
      "cow": 4934,
      "dential</w>": 4935,
      "elim": 4936,
      "worse</w>": 4937,
      "prime</w>": 4938,
      "capable</w>": 4939,
      "program": 4940,
      "affairs</w>": 4941,
      "chemicals</w>": 4942,
      "imagine</w>": 4943,
      "card</w>": 4944,
      "matters</w>": 4945,
      "alco": 4946,
      "lose</w>": 4947,
      "emper": 4948,
      "tested</w>": 4949,
      "primarily</w>": 4950,
      "resulted</w>": 4951,
      "younger</w>": 4952,
      "water": 4953,
      "characters</w>": 4954,
      "fts</w>": 4955,
      "py": 4956,
      "sar": 4957,
      "thou</w>": 4958,
      "cher": 4959,
      "lights</w>": 4960,
      "ounded</w>": 4961,
      "appointed</w>": 4962,
      "plus</w>": 4963,
      "civil": 4964,
      "mothers</w>": 4965,
      "anger</w>": 4966,
      "judge</w>": 4967,
      "topic</w>": 4968,
      "prisoners</w>": 4969,
      "parliament</w>": 4970,
      "strai": 4971,
      "strike</w>": 4972,
      "typical</w>": 4973,
      "intelligence</w>": 4974,
      "ss": 4975,
      "zer": 4976,
      "syl": 4977,
      "encing</w>": 4978,
      "crime</w>": 4979,
      "begins</w>": 4980,
      "labor": 4981,
      "calcul": 4982,
      "executive</w>": 4983,
      "37</w>": 4984,
      "phi": 4985,
      "rooms</w>": 4986,
      "sively</w>": 4987,
      "conqu": 4988,
      "gia</w>": 4989,
      "gic</w>": 4990,
      "wars</w>": 4991,
      "1999</w>": 4992,
      "forests</w>": 4993,
      "officer</w>": 4994,
      "dun": 4995,
      "jac": 4996,
      "scar": 4997,
      "thesis</w>": 4998,
      "resistance</w>": 4999,
      "haw": 5000,
      "adly</w>": 5001,
      "prepar": 5002,
      "sector</w>": 5003,
      "decade</w>": 5004,
      "maxim": 5005,
      "border</w>": 5006,
      "supplies</w>": 5007,
      "enjoy</w>": 5008,
      "earthqu": 5009,
      "assistance</w>": 5010,
      "chic": 5011,
      "near": 5012,
      "cards</w>": 5013,
      "rising</w>": 5014,
      "proce": 5015,
      "funding</w>": 5016,
      "friend": 5017,
      "appearance</w>": 5018,
      "eties</w>": 5019,
      "hi</w>": 5020,
      "ri</w>": 5021,
      "enter</w>": 5022,
      "acres</w>": 5023,
      "assum": 5024,
      "ric</w>": 5025,
      "phili": 5026,
      "attribu": 5027,
      "lars</w>": 5028,
      "elections</w>": 5029,
      "distingu": 5030,
      "settlement</w>": 5031,
      "engineering</w>": 5032,
      "consequences</w>": 5033,
      "tiny</w>": 5034,
      "ac</w>": 5035,
      "dor": 5036,
      "uring</w>": 5037,
      "hael</w>": 5038,
      "deaths</w>": 5039,
      "exter": 5040,
      "forth</w>": 5041,
      "goals</w>": 5042,
      "poe": 5043,
      "drew</w>": 5044,
      "populations</w>": 5045,
      "areness</w>": 5046,
      "shared</w>": 5047,
      "clean": 5048,
      "massive</w>": 5049,
      "divor": 5050,
      "childhood</w>": 5051,
      "comprehen": 5052,
      "aur": 5053,
      "ker": 5054,
      "ti</w>": 5055,
      "abuse</w>": 5056,
      "entions</w>": 5057,
      "advanced</w>": 5058,
      "policies</w>": 5059,
      "relationships</w>": 5060,
      "closely</w>": 5061,
      "visible</w>": 5062,
      "omen": 5063,
      "devo": 5064,
      "owner</w>": 5065,
      "dispu": 5066,
      "assess": 5067,
      "awareness</w>": 5068,
      "stored</w>": 5069,
      "driving</w>": 5070,
      "settled</w>": 5071,
      "apply</w>": 5072,
      "ron</w>": 5073,
      "producing</w>": 5074,
      "warm</w>": 5075,
      "oughly</w>": 5076,
      "painting</w>": 5077,
      "nership</w>": 5078,
      "philosophy</w>": 5079,
      "exposure</w>": 5080,
      "roads</w>": 5081,
      "opposition</w>": 5082,
      "earing</w>": 5083,
      "idly</w>": 5084,
      "decline</w>": 5085,
      "calls</w>": 5086,
      "voice</w>": 5087,
      "suffering</w>": 5088,
      "allowing</w>": 5089,
      "neighbor": 5090,
      "vietnam</w>": 5091,
      "immune</w>": 5092,
      "):</w>": 5093,
      "unfortunately</w>": 5094,
      "loy": 5095,
      "conference</w>": 5096,
      "promin": 5097,
      "seek</w>": 5098,
      "stors</w>": 5099,
      "compos": 5100,
      "expect</w>": 5101,
      "collabor": 5102,
      "sistant</w>": 5103,
      "ministry</w>": 5104,
      "lands": 5105,
      "drawing</w>": 5106,
      "aspects</w>": 5107,
      "defense</w>": 5108,
      "specifically</w>": 5109,
      "chick": 5110,
      "prop": 5111,
      "cred": 5112,
      "tric</w>": 5113,
      "busin": 5114,
      "movements</w>": 5115,
      "tanic</w>": 5116,
      "focused</w>": 5117,
      "constant</w>": 5118,
      "?\"</w>": 5119,
      "hall</w>": 5120,
      "relev": 5121,
      "performed</w>": 5122,
      "entirely</w>": 5123,
      "guil": 5124,
      "illness</w>": 5125,
      "decre": 5126,
      "knows</w>": 5127,
      "tissu": 5128,
      "defined</w>": 5129,
      "revealed</w>": 5130,
      "slowly</w>": 5131,
      "39</w>": 5132,
      "bi</w>": 5133,
      "mas</w>": 5134,
      "rare</w>": 5135,
      "adam</w>": 5136,
      "observ": 5137,
      "magaz": 5138,
      "techniques</w>": 5139,
      "possibly</w>": 5140,
      "sports</w>": 5141,
      "haz": 5142,
      "ries</w>": 5143,
      "consul": 5144,
      "edward</w>": 5145,
      "height</w>": 5146,
      "eived</w>": 5147,
      "contrast</w>": 5148,
      "strategy</w>": 5149,
      "islamic</w>": 5150,
      "mon</w>": 5151,
      "vast</w>": 5152,
      "stance</w>": 5153,
      "amed</w>": 5154,
      "log": 5155,
      "bear</w>": 5156,
      "track</w>": 5157,
      "peter</w>": 5158,
      "gran": 5159,
      "possibility</w>": 5160,
      "mainly</w>": 5161,
      "....": 5162,
      "michael</w>": 5163,
      "remin": 5164,
      "republic": 5165,
      "asks</w>": 5166,
      "trained</w>": 5167,
      "managed</w>": 5168,
      "ports</w>": 5169,
      "cogn": 5170,
      "20th</w>": 5171,
      "bition</w>": 5172,
      "survive</w>": 5173,
      "secretary</w>": 5174,
      "emotional</w>": 5175,
      "bishop</w>": 5176,
      "kennedy</w>": 5177,
      "gos": 5178,
      "laid</w>": 5179,
      "mes</w>": 5180,
      "path</w>": 5181,
      "ren</w>": 5182,
      "ision</w>": 5183,
      "unlike</w>": 5184,
      "trust</w>": 5185,
      "ulate</w>": 5186,
      "willing</w>": 5187,
      "relative</w>": 5188,
      "increasingly</w>": 5189,
      "robin</w>": 5190,
      "emissions</w>": 5191,
      "refuge": 5192,
      "description</w>": 5193,
      "flag</w>": 5194,
      "isted</w>": 5195,
      "nings</w>": 5196,
      "incorpor": 5197,
      "arg": 5198,
      "unknown</w>": 5199,
      "bees</w>": 5200,
      "markets</w>": 5201,
      "feed</w>": 5202,
      "join</w>": 5203,
      "generations</w>": 5204,
      "sought</w>": 5205,
      "positions</w>": 5206,
      "intell": 5207,
      "phenomen": 5208,
      "ais": 5209,
      "replaced</w>": 5210,
      "tives</w>": 5211,
      "ordered</w>": 5212,
      "expression</w>": 5213,
      "spac": 5214,
      "disorders</w>": 5215,
      "effici": 5216,
      "considerable</w>": 5217,
      "novel</w>": 5218,
      "judg": 5219,
      "significantly</w>": 5220,
      "christians</w>": 5221,
      "notice</w>": 5222,
      "supreme</w>": 5223,
      "gil": 5224,
      "hat": 5225,
      "saint</w>": 5226,
      "wing</w>": 5227,
      "thor": 5228,
      "unable</w>": 5229,
      "aband": 5230,
      "granted</w>": 5231,
      "context</w>": 5232,
      "corrup": 5233,
      "univers": 5234,
      "breast</w>": 5235,
      "regional</w>": 5236,
      "employe": 5237,
      "artists</w>": 5238,
      "crops</w>": 5239,
      "combined</w>": 5240,
      "tility</w>": 5241,
      "surrounding</w>": 5242,
      "camer": 5243,
      "daw": 5244,
      "ez": 5245,
      "hoo": 5246,
      "ares</w>": 5247,
      "raise</w>": 5248,
      "causing</w>": 5249,
      "suffered</w>": 5250,
      "fellow</w>": 5251,
      "committed</w>": 5252,
      "digital</w>": 5253,
      "italy</w>": 5254,
      "essions</w>": 5255,
      "owned</w>": 5256,
      "spot</w>": 5257,
      "remove</w>": 5258,
      "louis</w>": 5259,
      "vegetables</w>": 5260,
      "appreci": 5261,
      "snow</w>": 5262,
      "reform</w>": 5263,
      "grant</w>": 5264,
      "wed": 5265,
      "marked</w>": 5266,
      "trip</w>": 5267,
      "substanti": 5268,
      "pictures</w>": 5269,
      "concerns</w>": 5270,
      "extra</w>": 5271,
      "ultimately</w>": 5272,
      "yellow</w>": 5273,
      "emperor</w>": 5274,
      "dam</w>": 5275,
      "eggs</w>": 5276,
      "chos": 5277,
      "dic</w>": 5278,
      "trag": 5279,
      "visited</w>": 5280,
      "increases</w>": 5281,
      "imple": 5282,
      "remaining</w>": 5283,
      "occasi": 5284,
      "investment</w>": 5285,
      "florida</w>": 5286,
      "hence</w>": 5287,
      "retri": 5288,
      "obama</w>": 5289,
      "constructed</w>": 5290,
      "dollars</w>": 5291,
      "clinical</w>": 5292,
      "zo": 5293,
      "reti": 5294,
      "titanic</w>": 5295,
      "oration</w>": 5296,
      "division</w>": 5297,
      "los</w>": 5298,
      "pray": 5299,
      "ancing</w>": 5300,
      "engaged</w>": 5301,
      "regard</w>": 5302,
      "merely</w>": 5303,
      "describe</w>": 5304,
      "honor</w>": 5305,
      "assembly</w>": 5306,
      "tively</w>": 5307,
      "prove</w>": 5308,
      "proved</w>": 5309,
      "progres": 5310,
      "exchange</w>": 5311,
      "apol": 5312,
      "got": 5313,
      "soviet</w>": 5314,
      "captured</w>": 5315,
      "wonder": 5316,
      "navy</w>": 5317,
      "65</w>": 5318,
      "bell</w>": 5319,
      "mad</w>": 5320,
      "ens": 5321,
      "isol": 5322,
      "diversity</w>": 5323,
      "comfor": 5324,
      "quanti": 5325,
      "motiv": 5326,
      "senate</w>": 5327,
      "graph</w>": 5328,
      "represented</w>": 5329,
      "recognize</w>": 5330,
      "israel": 5331,
      "principle</w>": 5332,
      "gle</w>": 5333,
      "smar": 5334,
      "treas": 5335,
      "sensi": 5336,
      "towns</w>": 5337,
      "devices</w>": 5338,
      "girl</w>": 5339,
      "electricity</w>": 5340,
      "greatly</w>": 5341,
      "satur": 5342,
      "naturally</w>": 5343,
      "conclusion</w>": 5344,
      "yo": 5345,
      "inqu": 5346,
      "asking</w>": 5347,
      "somewhat</w>": 5348,
      "senior</w>": 5349,
      "immediate</w>": 5350,
      "flight</w>": 5351,
      "stim": 5352,
      "tam": 5353,
      "tour": 5354,
      "structures</w>": 5355,
      "fund</w>": 5356,
      "prison</w>": 5357,
      "practical</w>": 5358,
      "introduction</w>": 5359,
      "fill</w>": 5360,
      "slightly</w>": 5361,
      "tons</w>": 5362,
      "istics</w>": 5363,
      "consumption</w>": 5364,
      "opposed</w>": 5365,
      "putting</w>": 5366,
      "rence</w>": 5367,
      "swit": 5368,
      "istan</w>": 5369,
      "normally</w>": 5370,
      "initial</w>": 5371,
      "carolina</w>": 5372,
      "dness</w>": 5373,
      "legen": 5374,
      "prosp": 5375,
      "evening</w>": 5376,
      "grounds</w>": 5377,
      "bow</w>": 5378,
      "visions</w>": 5379,
      "courts</w>": 5380,
      "south": 5381,
      "bread</w>": 5382,
      "lincol": 5383,
      "labour</w>": 5384,
      "establish</w>": 5385,
      "necessarily</w>": 5386,
      "ologies</w>": 5387,
      "sentence</w>": 5388,
      "hitler</w>": 5389,
      "softw": 5390,
      "tool</w>": 5391,
      "escape</w>": 5392,
      "beings</w>": 5393,
      "plays</w>": 5394,
      "uck</w>": 5395,
      "weak": 5396,
      "dow</w>": 5397,
      "asters</w>": 5398,
      "explains</w>": 5399,
      "drawn</w>": 5400,
      "challenges</w>": 5401,
      "ano</w>": 5402,
      "rebel": 5403,
      "arm</w>": 5404,
      "chan": 5405,
      "gging</w>": 5406,
      "drop</w>": 5407,
      "protected</w>": 5408,
      "legislation</w>": 5409,
      "traffic</w>": 5410,
      "effectively</w>": 5411,
      "atlantic</w>": 5412,
      "nearby</w>": 5413,
      "chosen</w>": 5414,
      "lincoln</w>": 5415,
      "software</w>": 5416,
      "festi": 5417,
      "kni": 5418,
      "songs</w>": 5419,
      "tele": 5420,
      "loved</w>": 5421,
      "readers</w>": 5422,
      "alive</w>": 5423,
      "brothers</w>": 5424,
      "179": 5425,
      "truly</w>": 5426,
      "journey</w>": 5427,
      "promise</w>": 5428,
      "wage</w>": 5429,
      "ditionally</w>": 5430,
      "exclu": 5431,
      "warming</w>": 5432,
      "improved</w>": 5433,
      "deliver": 5434,
      "world": 5435,
      "fourth</w>": 5436,
      "models</w>": 5437,
      "dges</w>": 5438,
      "iel": 5439,
      "kit": 5440,
      "expressed</w>": 5441,
      "email</w>": 5442,
      "nego": 5443,
      "imperi": 5444,
      "degrees</w>": 5445,
      "400</w>": 5446,
      "icking</w>": 5447,
      "users</w>": 5448,
      "prevention</w>": 5449,
      "phar": 5450,
      "penn": 5451,
      "1998</w>": 5452,
      "definition</w>": 5453,
      "argument</w>": 5454,
      "adopted</w>": 5455,
      "thanks</w>": 5456,
      "desert</w>": 5457,
      "negoti": 5458,
      "pt</w>": 5459,
      "yn": 5460,
      "rivers</w>": 5461,
      "compon": 5462,
      "efficient</w>": 5463,
      "processes</w>": 5464,
      "technical</w>": 5465,
      "walking</w>": 5466,
      "rapidly</w>": 5467,
      "kan": 5468,
      "utions</w>": 5469,
      "proph": 5470,
      "expres": 5471,
      "spon": 5472,
      "crew</w>": 5473,
      "shop</w>": 5474,
      "sunday</w>": 5475,
      "discuss</w>": 5476,
      "oxy": 5477,
      "week": 5478,
      "lessons</w>": 5479,
      "debate</w>": 5480,
      "fashi": 5481,
      "korea</w>": 5482,
      "ining</w>": 5483,
      "apparen": 5484,
      "spar": 5485,
      "bles</w>": 5486,
      "ishes</w>": 5487,
      "bright</w>": 5488,
      "spoke</w>": 5489,
      "obvious</w>": 5490,
      "nasa</w>": 5491,
      "apparently</w>": 5492,
      "di</w>": 5493,
      "faster</w>": 5494,
      "lo</w>": 5495,
      "tivity</w>": 5496,
      "acting</w>": 5497,
      "seat</w>": 5498,
      "implic": 5499,
      "fewer</w>": 5500,
      "tribes</w>": 5501,
      "lined</w>": 5502,
      "collected</w>": 5503,
      "farms</w>": 5504,
      "artist</w>": 5505,
      "amounts</w>": 5506,
      "quarter</w>": 5507,
      "experiment</w>": 5508,
      "nutrition</w>": 5509,
      "chicago</w>": 5510,
      "ib": 5511,
      "van</w>": 5512,
      "inhabit": 5513,
      "alization</w>": 5514,
      "lit</w>": 5515,
      "guard</w>": 5516,
      "belong": 5517,
      "limit</w>": 5518,
      "glass</w>": 5519,
      "promote</w>": 5520,
      "sustain": 5521,
      "organisms</w>": 5522,
      "destruction</w>": 5523,
      "perspective</w>": 5524,
      "55</w>": 5525,
      "ko": 5526,
      "arre": 5527,
      "click</w>": 5528,
      "boston</w>": 5529,
      "ourselves</w>": 5530,
      "containing</w>": 5531,
      "twel": 5532,
      "twice</w>": 5533,
      "faced</w>": 5534,
      "streets</w>": 5535,
      "leads</w>": 5536,
      "tioned</w>": 5537,
      "moses</w>": 5538,
      "papers</w>": 5539,
      "chronic</w>": 5540,
      "properly</w>": 5541,
      "background</w>": 5542,
      "conversation</w>": 5543,
      "latin</w>": 5544,
      "fly</w>": 5545,
      "mic</w>": 5546,
      "vice</w>": 5547,
      "contrac": 5548,
      "wear</w>": 5549,
      "test": 5550,
      "sens": 5551,
      "regularly</w>": 5552,
      "buried</w>": 5553,
      "equally</w>": 5554,
      "criminal</w>": 5555,
      "administr": 5556,
      "excellent</w>": 5557,
      "jon": 5558,
      "kh": 5559,
      "push": 5560,
      "taste</w>": 5561,
      "alleg": 5562,
      "mort": 5563,
      "secure</w>": 5564,
      "biology</w>": 5565,
      "knowing</w>": 5566,
      "candi": 5567,
      "limits</w>": 5568,
      "holid": 5569,
      "hypo": 5570,
      "represent</w>": 5571,
      "babies</w>": 5572,
      "rescu": 5573,
      "insurance</w>": 5574,
      "hebrew</w>": 5575,
      "38</w>": 5576,
      "bone</w>": 5577,
      "eous</w>": 5578,
      "gal</w>": 5579,
      "host</w>": 5580,
      "reaction</w>": 5581,
      "renew": 5582,
      "dish</w>": 5583,
      "soul</w>": 5584,
      "respond</w>": 5585,
      "passage</w>": 5586,
      "circul": 5587,
      "literary</w>": 5588,
      "remark": 5589,
      "cs</w>": 5590,
      "cel": 5591,
      "mail</w>": 5592,
      "sant": 5593,
      "inspi": 5594,
      "abra": 5595,
      "faces</w>": 5596,
      "biggest</w>": 5597,
      "villages</w>": 5598,
      "encyclopedia</w>": 5599,
      "44</w>": 5600,
      "pages</w>": 5601,
      "adding</w>": 5602,
      "agues</w>": 5603,
      "aggres": 5604,
      "sey</w>": 5605,
      "peac": 5606,
      "carrying</w>": 5607,
      "aircraft</w>": 5608,
      "eleph": 5609,
      "answers</w>": 5610,
      "heads</w>": 5611,
      "beauty</w>": 5612,
      "drinking</w>": 5613,
      "listen</w>": 5614,
      "principal</w>": 5615,
      "sity</w>": 5616,
      "user</w>": 5617,
      "plat": 5618,
      "phy": 5619,
      "curricul": 5620,
      "periods</w>": 5621,
      "operating</w>": 5622,
      "democracy</w>": 5623,
      "railroad</w>": 5624,
      "circumstances</w>": 5625,
      "..</w>": 5626,
      "cin": 5627,
      "fted</w>": 5628,
      "gained</w>": 5629,
      "italian</w>": 5630,
      "decide</w>": 5631,
      "centers</w>": 5632,
      "athle": 5633,
      "passeng": 5634,
      "potentially</w>": 5635,
      "foot": 5636,
      "extended</w>": 5637,
      "prepare</w>": 5638,
      "statistics</w>": 5639,
      "bited</w>": 5640,
      "du</w>": 5641,
      "ota</w>": 5642,
      "repu": 5643,
      "embr": 5644,
      "ulation</w>": 5645,
      "terri": 5646,
      "more": 5647,
      "muscle</w>": 5648,
      "treaty</w>": 5649,
      "accurate</w>": 5650,
      "nesses</w>": 5651,
      "ok</w>": 5652,
      "bure": 5653,
      "risks</w>": 5654,
      "stantly</w>": 5655,
      "holding</w>": 5656,
      "tioning</w>": 5657,
      "extensive</w>": 5658,
      "housing</w>": 5659,
      "representatives</w>": 5660,
      "block</w>": 5661,
      "application</w>": 5662,
      "atmosphere</w>": 5663,
      "bile</w>": 5664,
      "ome": 5665,
      "existed</w>": 5666,
      "pedi": 5667,
      "pher": 5668,
      "scientist</w>": 5669,
      "heaven</w>": 5670,
      "refused</w>": 5671,
      "thoughts</w>": 5672,
      "mod": 5673,
      "movi": 5674,
      "creative</w>": 5675,
      "attached</w>": 5676,
      "productive</w>": 5677,
      "expec": 5678,
      "suffer</w>": 5679,
      "mount</w>": 5680,
      "touch</w>": 5681,
      "roots</w>": 5682,
      "fishing</w>": 5683,
      "stations</w>": 5684,
      "dian</w>": 5685,
      "spending</w>": 5686,
      "doz": 5687,
      "hol</w>": 5688,
      "feel": 5689,
      "phr": 5690,
      "dutch</w>": 5691,
      "internal</w>": 5692,
      "visitors</w>": 5693,
      "activ": 5694,
      "stered</w>": 5695,
      "explore</w>": 5696,
      "newspaper</w>": 5697,
      "vulner": 5698,
      "gotten</w>": 5699,
      "caught</w>": 5700,
      "vital</w>": 5701,
      "onally</w>": 5702,
      "listed</w>": 5703,
      "confeder": 5704,
      "counter": 5705,
      "1997</w>": 5706,
      "wheat</w>": 5707,
      "photo</w>": 5708,
      "double</w>": 5709,
      "welfare</w>": 5710,
      "graduate</w>": 5711,
      "iously</w>": 5712,
      "kes": 5713,
      "rement</w>": 5714,
      "alem</w>": 5715,
      "ata</w>": 5716,
      "essive</w>": 5717,
      "ables</w>": 5718,
      "neur": 5719,
      "hio</w>": 5720,
      "docu": 5721,
      "selected</w>": 5722,
      "correspon": 5723,
      "north": 5724,
      "funds</w>": 5725,
      "politici": 5726,
      "horses</w>": 5727,
      "radiation</w>": 5728,
      "danger</w>": 5729,
      "announced</w>": 5730,
      "feelings</w>": 5731,
      "document</w>": 5732,
      "bin": 5733,
      "dust</w>": 5734,
      "scul": 5735,
      "load</w>": 5736,
      "defic": 5737,
      "begun</w>": 5738,
      "shore</w>": 5739,
      "buc": 5740,
      "budd": 5741,
      "udes</w>": 5742,
      "soft</w>": 5743,
      "formal</w>": 5744,
      "covering</w>": 5745,
      "rocks</w>": 5746,
      "discussed</w>": 5747,
      "dows</w>": 5748,
      "encouraged</w>": 5749,
      "reducing</w>": 5750,
      "pregnancy</w>": 5751,
      "trouble</w>": 5752,
      "dal": 5753,
      "pum": 5754,
      "ron": 5755,
      "tment</w>": 5756,
      "yer</w>": 5757,
      "impres": 5758,
      "studying</w>": 5759,
      "corn</w>": 5760,
      "frag": 5761,
      "herself</w>": 5762,
      "athy</w>": 5763,
      "depending</w>": 5764,
      "injury</w>": 5765,
      "drink</w>": 5766,
      "transportation</w>": 5767,
      "rarely</w>": 5768,
      "scri": 5769,
      "itely</w>": 5770,
      "acking</w>": 5771,
      "promp": 5772,
      "trail</w>": 5773,
      "ooth</w>": 5774,
      "perform</w>": 5775,
      "count</w>": 5776,
      "declar": 5777,
      "pione": 5778,
      "bush</w>": 5779,
      "documents</w>": 5780,
      "hydr": 5781,
      "thirty</w>": 5782,
      "latest</w>": 5783,
      "ethn": 5784,
      "wonder</w>": 5785,
      "characteristics</w>": 5786,
      "relevant</w>": 5787,
      "asts</w>": 5788,
      "fing": 5789,
      "usalem</w>": 5790,
      "mobile</w>": 5791,
      "sky": 5792,
      "vey</w>": 5793,
      "broad</w>": 5794,
      "equality</w>": 5795,
      "chez</w>": 5796,
      "jerusalem</w>": 5797,
      "vaccine</w>": 5798,
      "explanation</w>": 5799,
      "pounds</w>": 5800,
      "ran</w>": 5801,
      "raid</w>": 5802,
      "greg": 5803,
      "finished</w>": 5804,
      "john": 5805,
      "victory</w>": 5806,
      "seeking</w>": 5807,
      "permanent</w>": 5808,
      "intellec": 5809,
      "ost": 5810,
      "var": 5811,
      "sters</w>": 5812,
      "units</w>": 5813,
      "doors</w>": 5814,
      "engage</w>": 5815,
      "charged</w>": 5816,
      "burn</w>": 5817,
      "receiving</w>": 5818,
      "infected</w>": 5819,
      "gap</w>": 5820,
      "realize</w>": 5821,
      "regarded</w>": 5822,
      "contemporary</w>": 5823,
      "fairly</w>": 5824,
      "00": 5825,
      "ae</w>": 5826,
      "ohio</w>": 5827,
      "enh": 5828,
      "attr": 5829,
      "depic": 5830,
      "worst</w>": 5831,
      "izes</w>": 5832,
      "rub": 5833,
      "solved</w>": 5834,
      "resulting</w>": 5835,
      "successfully</w>": 5836,
      "attempts</w>": 5837,
      "competition</w>": 5838,
      "fundamental</w>": 5839,
      "hes</w>": 5840,
      "jack": 5841,
      "km</w>": 5842,
      "killing</w>": 5843,
      "instr": 5844,
      "root</w>": 5845,
      "assign": 5846,
      "adel": 5847,
      "ago": 5848,
      "iring</w>": 5849,
      "never": 5850,
      "motion</w>": 5851,
      "gods</w>": 5852,
      "sched": 5853,
      "calling</w>": 5854,
      "1995</w>": 5855,
      "178": 5856,
      "archae": 5857,
      "pregnant</w>": 5858,
      "francis": 5859,
      "besides</w>": 5860,
      "vitamin</w>": 5861,
      "inspired</w>": 5862,
      "dental</w>": 5863,
      "jur": 5864,
      "yl": 5865,
      "thri": 5866,
      "theless</w>": 5867,
      "items</w>": 5868,
      "liance</w>": 5869,
      "opening</w>": 5870,
      "bling</w>": 5871,
      "ket": 5872,
      "advance</w>": 5873,
      "passing</w>": 5874,
      "earliest</w>": 5875,
      "technique</w>": 5876,
      "wisdom</w>": 5877,
      "adequate</w>": 5878,
      "nevertheless</w>": 5879,
      "telling</w>": 5880,
      "yiel": 5881,
      "inations</w>": 5882,
      "whit": 5883,
      "sher": 5884,
      "plant": 5885,
      "essay</w>": 5886,
      "genous</w>": 5887,
      "sciences</w>": 5888,
      "cultiv": 5889,
      "1996</w>": 5890,
      "distur": 5891,
      "driven</w>": 5892,
      "copy": 5893,
      "concerning</w>": 5894,
      "combination</w>": 5895,
      "panel</w>": 5896,
      "egyptian</w>": 5897,
      "flowers</w>": 5898,
      "cotton</w>": 5899,
      "inhabitants</w>": 5900,
      "curriculum</w>": 5901,
      "rest": 5902,
      "enz": 5903,
      "acle</w>": 5904,
      "oling</w>": 5905,
      "convic": 5906,
      "adju": 5907,
      "irs</w>": 5908,
      "apped</w>": 5909,
      "plain</w>": 5910,
      "gregation</w>": 5911,
      "essentially</w>": 5912,
      "purposes</w>": 5913,
      "planned</w>": 5914,
      "represents</w>": 5915,
      "involves</w>": 5916,
      "accounts</w>": 5917,
      "closer</w>": 5918,
      "scholars</w>": 5919,
      ".’</w>": 5920,
      "kel": 5921,
      "pack": 5922,
      "insec": 5923,
      "adic": 5924,
      "austri": 5925,
      "bru": 5926,
      "ock</w>": 5927,
      "highway</w>": 5928,
      "follows</w>": 5929,
      "screen</w>": 5930,
      "columbia</w>": 5931,
      "minimum</w>": 5932,
      ".'</w>": 5933,
      "dens</w>": 5934,
      "ero": 5935,
      "resource</w>": 5936,
      "beat</w>": 5937,
      "bringing</w>": 5938,
      "help": 5939,
      "universe</w>": 5940,
      "stars</w>": 5941,
      "veness</w>": 5942,
      "gery</w>": 5943,
      "settlers</w>": 5944,
      "stopped</w>": 5945,
      "missis": 5946,
      "earthquake</w>": 5947,
      "sculp": 5948,
      "rhy": 5949,
      "wouldn</w>": 5950,
      "rein": 5951,
      "chest": 5952,
      "theories</w>": 5953,
      "rim</w>": 5954,
      "coff": 5955,
      "firm</w>": 5956,
      "finds</w>": 5957,
      "trials</w>": 5958,
      "mix": 5959,
      "scop": 5960,
      "gradually</w>": 5961,
      "palest": 5962,
      "indicate</w>": 5963,
      "initially</w>": 5964,
      "texts</w>": 5965,
      "favorite</w>": 5966,
      "twelve</w>": 5967,
      "48</w>": 5968,
      "ear</w>": 5969,
      "nine": 5970,
      "aria</w>": 5971,
      "assume</w>": 5972,
      "sit</w>": 5973,
      "suic": 5974,
      "agencies</w>": 5975,
      "aked</w>": 5976,
      "edy</w>": 5977,
      "storm</w>": 5978,
      "missing</w>": 5979,
      "breaking</w>": 5980,
      "chron": 5981,
      "wides": 5982,
      "achieved</w>": 5983,
      "refers</w>": 5984,
      "quarters</w>": 5985,
      "flood</w>": 5986,
      "opposite</w>": 5987,
      "landscape</w>": 5988,
      "cook</w>": 5989,
      "dless</w>": 5990,
      "wright</w>": 5991,
      "sipp": 5992,
      "conven": 5993,
      "pet</w>": 5994,
      "aints</w>": 5995,
      "asty</w>": 5996,
      "expert</w>": 5997,
      "functions</w>": 5998,
      "conduct</w>": 5999,
      "navi": 6000,
      "instruction</w>": 6001,
      "divine</w>": 6002,
      "golden</w>": 6003,
      "lady</w>": 6004,
      "weapons</w>": 6005,
      "dedicated</w>": 6006,
      "alcohol</w>": 6007,
      "laboratory</w>": 6008,
      "fought</w>": 6009,
      "falls</w>": 6010,
      "uality</w>": 6011,
      "ves": 6012,
      "mill</w>": 6013,
      "courses</w>": 6014,
      "veter": 6015,
      "organic</w>": 6016,
      "survival</w>": 6017,
      "experiments</w>": 6018,
      "branches</w>": 6019,
      "budget</w>": 6020,
      "sylvan": 6021,
      "assessment</w>": 6022,
      "magazine</w>": 6023,
      "bar</w>": 6024,
      "dden</w>": 6025,
      "dency</w>": 6026,
      "edition</w>": 6027,
      "gare": 6028,
      "lec": 6029,
      "ris</w>": 6030,
      "son": 6031,
      "tune</w>": 6032,
      "anxi": 6033,
      "tim</w>": 6034,
      "sil</w>": 6035,
      "sees</w>": 6036,
      "pread</w>": 6037,
      "percent": 6038,
      "parish</w>": 6039,
      "contained</w>": 6040,
      "sections</w>": 6041,
      "census</w>": 6042,
      "indigenous</w>": 6043,
      "ousness</w>": 6044,
      "magi": 6045,
      "districts</w>": 6046,
      "racial</w>": 6047,
      "noticed</w>": 6048,
      "straight</w>": 6049,
      "prominent</w>": 6050,
      "mississipp": 6051,
      "widespread</w>": 6052,
      "brow": 6053,
      "bones</w>": 6054,
      "eu</w>": 6055,
      "eter": 6056,
      "fat": 6057,
      "fis": 6058,
      "hills</w>": 6059,
      "ott": 6060,
      "pak": 6061,
      "pool</w>": 6062,
      "iling</w>": 6063,
      "pot</w>": 6064,
      "schem": 6065,
      "miss</w>": 6066,
      "approved</w>": 6067,
      "relief</w>": 6068,
      "languages</w>": 6069,
      "club</w>": 6070,
      "colleagues</w>": 6071,
      "occupi": 6072,
      "consumers</w>": 6073,
      "architecture</w>": 6074,
      "falling</w>": 6075,
      "!”</w>": 6076,
      "tho": 6077,
      "ander": 6078,
      "restor": 6079,
      "acre</w>": 6080,
      "esh</w>": 6081,
      "dej": 6082,
      "superi": 6083,
      "marks</w>": 6084,
      "operate</w>": 6085,
      "equivalent</w>": 6086,
      "photograph": 6087,
      "lunch</w>": 6088,
      "saved</w>": 6089,
      "gulf</w>": 6090,
      "95</w>": 6091,
      "couldn</w>": 6092,
      "mented</w>": 6093,
      "pm</w>": 6094,
      "ray</w>": 6095,
      "stam": 6096,
      "asser": 6097,
      "lot": 6098,
      "portu": 6099,
      "mining</w>": 6100,
      "epide": 6101,
      "fresh": 6102,
      "drought</w>": 6103,
      "mudej": 6104,
      "detail</w>": 6105,
      "branch</w>": 6106,
      "recommended</w>": 6107,
      "licen": 6108,
      "toler": 6109,
      "massach": 6110,
      "whereas</w>": 6111,
      "mathematics</w>": 6112,
      "mississippi</w>": 6113,
      "800</w>": 6114,
      "ex</w>": 6115,
      "fai": 6116,
      "tled</w>": 6117,
      "ticism</w>": 6118,
      "obtained</w>": 6119,
      "visual</w>": 6120,
      "solid</w>": 6121,
      "reader</w>": 6122,
      "etts</w>": 6123,
      "break": 6124,
      "author": 6125,
      "profit</w>": 6126,
      "home": 6127,
      "copy</w>": 6128,
      "argue</w>": 6129,
      "strategies</w>": 6130,
      "household</w>": 6131,
      "fossil</w>": 6132,
      "poetry</w>": 6133,
      "businesses</w>": 6134,
      "pennsylvan": 6135,
      "massachus": 6136,
      "47</w>": 6137,
      "absor": 6138,
      "option</w>": 6139,
      "martin</w>": 6140,
      "minor</w>": 6141,
      "entional</w>": 6142,
      "raising</w>": 6143,
      "happening</w>": 6144,
      "patri": 6145,
      "doctr": 6146,
      "fruits</w>": 6147,
      "divorce</w>": 6148,
      "massachusetts</w>": 6149,
      "46</w>": 6150,
      "aw</w>": 6151,
      "gin</w>": 6152,
      "ador</w>": 6153,
      "ulated</w>": 6154,
      "spain</w>": 6155,
      "worship</w>": 6156,
      "subsi": 6157,
      "ideal</w>": 6158,
      "burning</w>": 6159,
      "happiness</w>": 6160,
      "churches</w>": 6161,
      "sitting</w>": 6162,
      "institution</w>": 6163,
      "measured</w>": 6164,
      "myself</w>": 6165,
      "apping</w>": 6166,
      "computers</w>": 6167,
      "colonial</w>": 6168,
      "refer</w>": 6169,
      "cooking</w>": 6170,
      "joint</w>": 6171,
      "colorado</w>": 6172,
      "cognitive</w>": 6173,
      "worldwide</w>": 6174,
      "oxygen</w>": 6175,
      "testament</w>": 6176,
      "150</w>": 6177,
      "cra": 6178,
      "rati": 6179,
      "insi": 6180,
      "ica</w>": 6181,
      "eval</w>": 6182,
      "poem</w>": 6183,
      "heim": 6184,
      "creek</w>": 6185,
      "minds</w>": 6186,
      "duty</w>": 6187,
      "intervention</w>": 6188,
      "lab</w>": 6189,
      "fiction</w>": 6190,
      "shaped</w>": 6191,
      "inflation</w>": 6192,
      "arrival</w>": 6193,
      "investigation</w>": 6194,
      "depth</w>": 6195,
      "difficulty</w>": 6196,
      "magistr": 6197,
      "ahead</w>": 6198,
      "obe": 6199,
      "theast</w>": 6200,
      "dealing</w>": 6201,
      "weak</w>": 6202,
      "facing</w>": 6203,
      "flat</w>": 6204,
      "harm": 6205,
      "quid</w>": 6206,
      "beliefs</w>": 6207,
      "farming</w>": 6208,
      "significance</w>": 6209,
      "contributed</w>": 6210,
      "minute</w>": 6211,
      "distribution</w>": 6212,
      "abraham</w>": 6213,
      "cattle</w>": 6214,
      "dp</w>": 6215,
      "gon</w>": 6216,
      "wo": 6217,
      "aten</w>": 6218,
      "asing</w>": 6219,
      "adver": 6220,
      "meal</w>": 6221,
      "sover": 6222,
      "epis": 6223,
      "biological</w>": 6224,
      "engine</w>": 6225,
      "harb": 6226,
      "directed</w>": 6227,
      "calories</w>": 6228,
      "dropped</w>": 6229,
      "influenced</w>": 6230,
      "carefully</w>": 6231,
      "secondary</w>": 6232,
      "occupied</w>": 6233,
      "25": 6234,
      "cat</w>": 6235,
      "inev": 6236,
      "acid</w>": 6237,
      "unusual</w>": 6238,
      "ags</w>": 6239,
      "ager</w>": 6240,
      "mixed</w>": 6241,
      "vised</w>": 6242,
      "certi": 6243,
      "links</w>": 6244,
      "writes</w>": 6245,
      "situations</w>": 6246,
      "pollution</w>": 6247,
      "pennsylvania</w>": 6248,
      "knight</w>": 6249,
      "tari": 6250,
      "uel</w>": 6251,
      "enly</w>": 6252,
      "accompan": 6253,
      "ece</w>": 6254,
      "beds</w>": 6255,
      "shoo": 6256,
      "gry</w>": 6257,
      "cow</w>": 6258,
      "comments</w>": 6259,
      "obtain</w>": 6260,
      "appeal</w>": 6261,
      "detailed</w>": 6262,
      "google</w>": 6263,
      "target</w>": 6264,
      "wait</w>": 6265,
      "promised</w>": 6266,
      "hospit": 6267,
      "expedition</w>": 6268,
      "helpful</w>": 6269,
      "soverei": 6270,
      "ius</w>": 6271,
      "ord": 6272,
      "illegal</w>": 6273,
      "asion</w>": 6274,
      "cher</w>": 6275,
      "emi": 6276,
      "predat": 6277,
      "manage</w>": 6278,
      "monit": 6279,
      "banking</w>": 6280,
      "tower</w>": 6281,
      "further": 6282,
      "newly</w>": 6283,
      "silver</w>": 6284,
      "topics</w>": 6285,
      "crucial</w>": 6286,
      "false</w>": 6287,
      "sudden": 6288,
      "maximum</w>": 6289,
      "43</w>": 6290,
      "64</w>": 6291,
      "cd</w>": 6292,
      "rice</w>": 6293,
      "temp": 6294,
      "inity</w>": 6295,
      "outs</w>": 6296,
      "asian</w>": 6297,
      "lements</w>": 6298,
      "proto": 6299,
      "nee</w>": 6300,
      "terr": 6301,
      "giant</w>": 6302,
      "crete</w>": 6303,
      "storage</w>": 6304,
      "reless</w>": 6305,
      "memorial</w>": 6306,
      "basically</w>": 6307,
      "printed</w>": 6308,
      "merch": 6309,
      "meanwhile</w>": 6310,
      "versities</w>": 6311,
      "valuable</w>": 6312,
      "employees</w>": 6313,
      "ethnic</w>": 6314,
      "bid": 6315,
      "cem": 6316,
      "roughly</w>": 6317,
      "wall": 6318,
      "sport</w>": 6319,
      "feature</w>": 6320,
      "stead": 6321,
      "cerem": 6322,
      "solutions</w>": 6323,
      "pope</w>": 6324,
      "collap": 6325,
      "sister</w>": 6326,
      "attended</w>": 6327,
      "constitutional</w>": 6328,
      "confidence</w>": 6329,
      "mour": 6330,
      "nom": 6331,
      "tel": 6332,
      "ye</w>": 6333,
      "reac": 6334,
      "orm": 6335,
      "bel</w>": 6336,
      "pla": 6337,
      "mari": 6338,
      "pra": 6339,
      "black": 6340,
      "factory</w>": 6341,
      "eping</w>": 6342,
      "surgery</w>": 6343,
      "capture</w>": 6344,
      "broke</w>": 6345,
      "describes</w>": 6346,
      "homo": 6347,
      "1960s</w>": 6348,
      "crop</w>": 6349,
      "liberal</w>": 6350,
      "regulations</w>": 6351,
      "sharing</w>": 6352,
      "alogue</w>": 6353,
      "emphasis</w>": 6354,
      "astronom": 6355,
      "concluded</w>": 6356,
      "manufacturing</w>": 6357,
      "believes</w>": 6358,
      "ts": 6359,
      "worthy</w>": 6360,
      "boats</w>": 6361,
      "duke</w>": 6362,
      "interior</w>": 6363,
      "consists</w>": 6364,
      "clothing</w>": 6365,
      "catch</w>": 6366,
      "samples</w>": 6367,
      "transport</w>": 6368,
      "obviously</w>": 6369,
      "christmas</w>": 6370,
      "vehicle</w>": 6371,
      "derived</w>": 6372,
      "concepts</w>": 6373,
      "suddenly</w>": 6374,
      "zone</w>": 6375,
      "dest": 6376,
      "express</w>": 6377,
      "disabilities</w>": 6378,
      "fusion</w>": 6379,
      "award</w>": 6380,
      "technologies</w>": 6381,
      "combat</w>": 6382,
      "enemies</w>": 6383,
      "blog</w>": 6384,
      "launched</w>": 6385,
      "defeated</w>": 6386,
      "percentage</w>": 6387,
      "42</w>": 6388,
      "aj": 6389,
      "tance</w>": 6390,
      "eries</w>": 6391,
      "robo": 6392,
      "usa</w>": 6393,
      "civ": 6394,
      "quick</w>": 6395,
      "feeding</w>": 6396,
      "dream</w>": 6397,
      "corn": 6398,
      "bigger</w>": 6399,
      "traditions</w>": 6400,
      "informed</w>": 6401,
      "pick</w>": 6402,
      "ruled</w>": 6403,
      "injuries</w>": 6404,
      "convinc": 6405,
      "guaran": 6406,
      "subsequent</w>": 6407,
      "republican</w>": 6408,
      "remarkable</w>": 6409,
      "eing</w>": 6410,
      "jeff": 6411,
      "pal</w>": 6412,
      "pure</w>": 6413,
      "ur</w>": 6414,
      "inner</w>": 6415,
      "err": 6416,
      "rever": 6417,
      "reserve</w>": 6418,
      "element</w>": 6419,
      "coast": 6420,
      "selection</w>": 6421,
      "tribe</w>": 6422,
      "anda</w>": 6423,
      "offen": 6424,
      "electric</w>": 6425,
      "hyper": 6426,
      "players</w>": 6427,
      "participation</w>": 6428,
      "legislature</w>": 6429,
      "dynam": 6430,
      "distinct</w>": 6431,
      "succeeded</w>": 6432,
      "41</w>": 6433,
      "ki</w>": 6434,
      "sand</w>": 6435,
      "sale</w>": 6436,
      "tv</w>": 6437,
      "tally</w>": 6438,
      "else": 6439,
      "proof</w>": 6440,
      "seattle</w>": 6441,
      "motor</w>": 6442,
      "wireless</w>": 6443,
      "universities</w>": 6444,
      "porters</w>": 6445,
      "cultures</w>": 6446,
      "damaged</w>": 6447,
      "literally</w>": 6448,
      "colonies</w>": 6449,
      "messages</w>": 6450,
      "temperatures</w>": 6451,
      "dominant</w>": 6452,
      "molec": 6453,
      "arrested</w>": 6454,
      "vulnerable</w>": 6455,
      "copyright</w>": 6456,
      "anxiety</w>": 6457,
      "fever</w>": 6458,
      "gent": 6459,
      "jack</w>": 6460,
      "inspir": 6461,
      "entr": 6462,
      "aring</w>": 6463,
      "orph": 6464,
      "notion</w>": 6465,
      "osity</w>": 6466,
      "options</w>": 6467,
      "quali": 6468,
      "peoples</w>": 6469,
      "canal</w>": 6470,
      "1994</w>": 6471,
      "recognition</w>": 6472,
      "handle</w>": 6473,
      "diagnosed</w>": 6474,
      "strongly</w>": 6475,
      "descend": 6476,
      "retrieved</w>": 6477,
      "nasty</w>": 6478,
      "sad": 6479,
      "sick</w>": 6480,
      "tat": 6481,
      "tes": 6482,
      "wearing</w>": 6483,
      "erson</w>": 6484,
      "esity</w>": 6485,
      "lee</w>": 6486,
      "adds</w>": 6487,
      "gift</w>": 6488,
      "edge</w>": 6489,
      "editor</w>": 6490,
      "obesity</w>": 6491,
      "1990s</w>": 6492,
      "painted</w>": 6493,
      "utely</w>": 6494,
      "survived</w>": 6495,
      "rapid</w>": 6496,
      "reflect</w>": 6497,
      "emotions</w>": 6498,
      "aspect</w>": 6499,
      "newspapers</w>": 6500,
      "consistent</w>": 6501,
      "assassination</w>": 6502,
      "tissue</w>": 6503,
      "mrs</w>": 6504,
      "oh</w>": 6505,
      "utili": 6506,
      "ark</w>": 6507,
      "ortho": 6508,
      "propos": 6509,
      "petro": 6510,
      "1912</w>": 6511,
      "stret": 6512,
      "exce": 6513,
      "argued</w>": 6514,
      "evolved</w>": 6515,
      "industries</w>": 6516,
      "efficiency</w>": 6517,
      "bound</w>": 6518,
      "inal</w>": 6519,
      "habits</w>": 6520,
      "bee</w>": 6521,
      "beach</w>": 6522,
      "cling</w>": 6523,
      "essels</w>": 6524,
      "monday</w>": 6525,
      "corner</w>": 6526,
      "tened</w>": 6527,
      "brea": 6528,
      "starts</w>": 6529,
      "eful": 6530,
      "violent</w>": 6531,
      "headed</w>": 6532,
      "machines</w>": 6533,
      "publication</w>": 6534,
      "hurric": 6535,
      "comfortable</w>": 6536,
      "auc": 6537,
      "gur": 6538,
      "mamm": 6539,
      "makers</w>": 6540,
      "arch</w>": 6541,
      "ona</w>": 6542,
      "acqui": 6543,
      "adol": 6544,
      "peak</w>": 6545,
      "coven": 6546,
      "posted</w>": 6547,
      "astro": 6548,
      "surprise</w>": 6549,
      "brief</w>": 6550,
      "maintained</w>": 6551,
      "cambo": 6552,
      "measu": 6553,
      "participate</w>": 6554,
      "females</w>": 6555,
      "suspen": 6556,
      "liberty</w>": 6557,
      "destroy</w>": 6558,
      "gallery</w>": 6559,
      "vehicles</w>": 6560,
      "regime</w>": 6561,
      "universal</w>": 6562,
      "49</w>": 6563,
      "66</w>": 6564,
      "bos": 6565,
      "fail</w>": 6566,
      "has": 6567,
      "lar</w>": 6568,
      "tus</w>": 6569,
      "vessels</w>": 6570,
      "arbit": 6571,
      "stal": 6572,
      "stable</w>": 6573,
      "theme</w>": 6574,
      "ami</w>": 6575,
      "forty</w>": 6576,
      "hidden</w>": 6577,
      "parks</w>": 6578,
      "gible</w>": 6579,
      "fies</w>": 6580,
      "minority</w>": 6581,
      "counsel": 6582,
      "attend</w>": 6583,
      "unions</w>": 6584,
      "viruses</w>": 6585,
      "oregon</w>": 6586,
      "ailing</w>": 6587,
      "communist</w>": 6588,
      "legs</w>": 6589,
      "classical</w>": 6590,
      "extinc": 6591,
      "short": 6592,
      "fifth</w>": 6593,
      "purchase</w>": 6594,
      "complicated</w>": 6595,
      "santa</w>": 6596,
      "suicide</w>": 6597,
      "elsewhere</w>": 6598,
      "76</w>": 6599,
      "dying</w>": 6600,
      "dani": 6601,
      "fda</w>": 6602,
      "gers</w>": 6603,
      "itted</w>": 6604,
      "chose</w>": 6605,
      "leton</w>": 6606,
      "facility</w>": 6607,
      "attacked</w>": 6608,
      "bian</w>": 6609,
      "rows</w>": 6610,
      "choices</w>": 6611,
      "windows</w>": 6612,
      "requirements</w>": 6613,
      "tank</w>": 6614,
      "michi": 6615,
      "heavily</w>": 6616,
      "contract</w>": 6617,
      "electronic</w>": 6618,
      "preced": 6619,
      "neutr": 6620,
      "audience</w>": 6621,
      "volunteers</w>": 6622,
      "sensitive</w>": 6623,
      "nineteenth</w>": 6624,
      "cz": 6625,
      "inc</w>": 6626,
      "redi": 6627,
      "tia</w>": 6628,
      "allies</w>": 6629,
      "whel": 6630,
      "unto</w>": 6631,
      "shu": 6632,
      "shire</w>": 6633,
      "ules</w>": 6634,
      "plenty</w>": 6635,
      "strange</w>": 6636,
      "ingredi": 6637,
      "cardi": 6638,
      "keys</w>": 6639,
      "render</w>": 6640,
      "1990</w>": 6641,
      "affects</w>": 6642,
      "placing</w>": 6643,
      "mercur": 6644,
      "establishment</w>": 6645,
      "contribute</w>": 6646,
      "attempted</w>": 6647,
      "revolutionary</w>": 6648,
      "scotland</w>": 6649,
      "civilization</w>": 6650,
      "comprehensive</w>": 6651,
      "moreover</w>": 6652,
      "62</w>": 6653,
      "dc</w>": 6654,
      "dav": 6655,
      "kins</w>": 6656,
      "zing</w>": 6657,
      "inate</w>": 6658,
      "inches</w>": 6659,
      "ali</w>": 6660,
      "agents</w>": 6661,
      "ula</w>": 6662,
      "meters</w>": 6663,
      "affor": 6664,
      "natchez</w>": 6665,
      "incredi": 6666,
      "herit": 6667,
      "medieval</w>": 6668,
      "sample</w>": 6669,
      "samuel</w>": 6670,
      "representation</w>": 6671,
      "representative</w>": 6672,
      "smoke</w>": 6673,
      "diagnosis</w>": 6674,
      "narrative</w>": 6675,
      "arctic</w>": 6676,
      "nan": 6677,
      "sam</w>": 6678,
      "vals</w>": 6679,
      "oured</w>": 6680,
      "irving</w>": 6681,
      "clou": 6682,
      "desi": 6683,
      "secu": 6684,
      "decor": 6685,
      "18th</w>": 6686,
      "recovery</w>": 6687,
      "ruling</w>": 6688,
      "communicate</w>": 6689,
      "georgia</w>": 6690,
      "runs</w>": 6691,
      "threatened</w>": 6692,
      "dramatic</w>": 6693,
      "rescue</w>": 6694,
      "francisco</w>": 6695,
      "furthermore</w>": 6696,
      "85</w>": 6697,
      "cats</w>": 6698,
      "dently</w>": 6699,
      "ro</w>": 6700,
      "sanc": 6701,
      "ern": 6702,
      "enorm": 6703,
      "ara</w>": 6704,
      "roll</w>": 6705,
      "oldest</w>": 6706,
      "che</w>": 6707,
      "trace</w>": 6708,
      "ull</w>": 6709,
      "pel</w>": 6710,
      "bott": 6711,
      "mars</w>": 6712,
      "bibl": 6713,
      "skill</w>": 6714,
      "struck</w>": 6715,
      "warren</w>": 6716,
      "trop": 6717,
      "archy</w>": 6718,
      "donald</w>": 6719,
      "habitat</w>": 6720,
      "commander</w>": 6721,
      "wonderful</w>": 6722,
      "mercury</w>": 6723,
      "78</w>": 6724,
      "ities</w>": 6725,
      "kam": 6726,
      "nice</w>": 6727,
      "past": 6728,
      "swi": 6729,
      "elines</w>": 6730,
      "diverse</w>": 6731,
      "righ": 6732,
      "sum</w>": 6733,
      "apple</w>": 6734,
      "portra": 6735,
      "locations</w>": 6736,
      "chart</w>": 6737,
      "cash</w>": 6738,
      "mention</w>": 6739,
      "system": 6740,
      "citizen</w>": 6741,
      "regardless</w>": 6742,
      "connect</w>": 6743,
      "frank": 6744,
      "absolute</w>": 6745,
      "51</w>": 6746,
      "bass": 6747,
      "cents</w>": 6748,
      "fed</w>": 6749,
      "iv</w>": 6750,
      "wave</w>": 6751,
      "zes</w>": 6752,
      "alle": 6753,
      "chro": 6754,
      "haven</w>": 6755,
      "classi": 6756,
      "afford</w>": 6757,
      "phones</w>": 6758,
      "mond</w>": 6759,
      "crimes</w>": 6760,
      "cutting</w>": 6761,
      "substance</w>": 6762,
      "collect</w>": 6763,
      "improving</w>": 6764,
      "designs</w>": 6765,
      "literacy</w>": 6766,
      "definitely</w>": 6767,
      "favor</w>": 6768,
      "expansion</w>": 6769,
      "refugees</w>": 6770,
      "insects</w>": 6771,
      "heimer</w>": 6772,
      "heritage</w>": 6773,
      "biblical</w>": 6774,
      "ea</w>": 6775,
      "rav": 6776,
      "telev": 6777,
      "deer</w>": 6778,
      "constantly</w>": 6779,
      "semin": 6780,
      "posts</w>": 6781,
      "seriously</w>": 6782,
      "2015</w>": 6783,
      "commitment</w>": 6784,
      "celebrated</w>": 6785,
      "stronger</w>": 6786,
      "confirmed</w>": 6787,
      "civili": 6788,
      "''</w>": 6789,
      "ium</w>": 6790,
      "ots</w>": 6791,
      "anity</w>": 6792,
      "aside</w>": 6793,
      "grain</w>": 6794,
      "face": 6795,
      "infections</w>": 6796,
      "1970s</w>": 6797,
      "philadel": 6798,
      "oxide</w>": 6799,
      "enjoyed</w>": 6800,
      "perceived</w>": 6801,
      "conventional</w>": 6802,
      "fifty</w>": 6803,
      "concentration</w>": 6804,
      "trend</w>": 6805,
      "thusi": 6806,
      "cool</w>": 6807,
      "fice</w>": 6808,
      "ht": 6809,
      "pine</w>": 6810,
      "tips</w>": 6811,
      "stages</w>": 6812,
      "und": 6813,
      "bears</w>": 6814,
      "optim": 6815,
      "mans</w>": 6816,
      "colors</w>": 6817,
      "compare</w>": 6818,
      "offering</w>": 6819,
      "ested</w>": 6820,
      "diction</w>": 6821,
      "educated</w>": 6822,
      "founder</w>": 6823,
      "involving</w>": 6824,
      "judges</w>": 6825,
      "partner</w>": 6826,
      "paint</w>": 6827,
      "palace</w>": 6828,
      "colony</w>": 6829,
      "contrary</w>": 6830,
      "sexuality</w>": 6831,
      "supporting</w>": 6832,
      "gathered</w>": 6833,
      "amazing</w>": 6834,
      "legitim": 6835,
      "phia</w>": 6836,
      "festival</w>": 6837,
      "sustainable</w>": 6838,
      "johnson</w>": 6839,
      "arbitr": 6840,
      "gli": 6841,
      "maps</w>": 6842,
      "erup": 6843,
      "orange</w>": 6844,
      "itate</w>": 6845,
      "dimen": 6846,
      "losses</w>": 6847,
      "agu": 6848,
      "agers</w>": 6849,
      "exact</w>": 6850,
      "appoin": 6851,
      "visits</w>": 6852,
      "match</w>": 6853,
      "voting</w>": 6854,
      "overwhel": 6855,
      "watching</w>": 6856,
      "judic": 6857,
      "australian</w>": 6858,
      "korean</w>": 6859,
      "hydrogen</w>": 6860,
      "phenomenon</w>": 6861,
      "prayer</w>": 6862,
      "imperial</w>": 6863,
      "orthodo": 6864,
      "52</w>": 6865,
      "fab": 6866,
      "paying</w>": 6867,
      "inno": 6868,
      "alize</w>": 6869,
      "elem": 6870,
      "agon</w>": 6871,
      "forget</w>": 6872,
      "dering</w>": 6873,
      "asting</w>": 6874,
      "throne</w>": 6875,
      "ski</w>": 6876,
      "mud</w>": 6877,
      "cope</w>": 6878,
      "intense</w>": 6879,
      "frequent</w>": 6880,
      "wood": 6881,
      "greenhouse</w>": 6882,
      "assumed</w>": 6883,
      "external</w>": 6884,
      "intellectual</w>": 6885,
      "philadelphia</w>": 6886,
      "ku": 6887,
      "oid</w>": 6888,
      "tar</w>": 6889,
      "vary</w>": 6890,
      "anni": 6891,
      "enrol": 6892,
      "onist</w>": 6893,
      "aders</w>": 6894,
      "agement</w>": 6895,
      "persi": 6896,
      "estate</w>": 6897,
      "generate</w>": 6898,
      "affir": 6899,
      "scott</w>": 6900,
      "shortly</w>": 6901,
      "vietnam": 6902,
      "discipline</w>": 6903,
      "abandoned</w>": 6904,
      "eks</w>": 6905,
      "nd</w>": 6906,
      "sy</w>": 6907,
      "reaching</w>": 6908,
      "enthusi": 6909,
      "itarian</w>": 6910,
      "chen</w>": 6911,
      "unemployment</w>": 6912,
      "loan</w>": 6913,
      "convention</w>": 6914,
      "admir": 6915,
      "irri": 6916,
      "coordin": 6917,
      "gian</w>": 6918,
      "maria</w>": 6919,
      "contam": 6920,
      "miner": 6921,
      "flav": 6922,
      "warning</w>": 6923,
      "examine</w>": 6924,
      "2014</w>": 6925,
      "worker</w>": 6926,
      "oxford</w>": 6927,
      "proteins</w>": 6928,
      "index</w>": 6929,
      "demands</w>": 6930,
      "revenue</w>": 6931,
      "61</w>": 6932,
      "600</w>": 6933,
      "bought</w>": 6934,
      "gas": 6935,
      "ll": 6936,
      "thes": 6937,
      "thur": 6938,
      "tious</w>": 6939,
      "ala</w>": 6940,
      "acles</w>": 6941,
      "isms</w>": 6942,
      "consol": 6943,
      "display</w>": 6944,
      "genesis</w>": 6945,
      "fined</w>": 6946,
      "compens": 6947,
      "flying</w>": 6948,
      "presidential</w>": 6949,
      "males</w>": 6950,
      "indicates</w>": 6951,
      "trafficking</w>": 6952,
      "households</w>": 6953,
      "guidelines</w>": 6954,
      "virtually</w>": 6955,
      "nazi</w>": 6956,
      "holiday</w>": 6957,
      "passengers</w>": 6958,
      "vietnamese</w>": 6959,
      "kr": 6960,
      "tings</w>": 6961,
      "wells</w>": 6962,
      "agos</w>": 6963,
      "shed</w>": 6964,
      "tel</w>": 6965,
      "phase</w>": 6966,
      "twenti": 6967,
      "selling</w>": 6968,
      "historians</w>": 6969,
      "muham": 6970,
      "excep": 6971,
      "operated</w>": 6972,
      "dairy</w>": 6973,
      "1980s</w>": 6974,
      "humanity</w>": 6975,
      "punishment</w>": 6976,
      "applications</w>": 6977,
      "smoking</w>": 6978,
      "comparison</w>": 6979,
      "deeper</w>": 6980,
      "stingr": 6981,
      "politicians</w>": 6982,
      "cos": 6983,
      "crown</w>": 6984,
      "gay</w>": 6985,
      "kin</w>": 6986,
      "tum": 6987,
      "wine</w>": 6988,
      "waves</w>": 6989,
      "assigned</w>": 6990,
      "losing</w>": 6991,
      "seeds</w>": 6992,
      "permission</w>": 6993,
      "ava</w>": 6994,
      "brings</w>": 6995,
      "powered</w>": 6996,
      "hard": 6997,
      "breaks</w>": 6998,
      "depends</w>": 6999,
      "circle</w>": 7000,
      "kinson</w>": 7001,
      "consumer</w>": 7002,
      "absolutely</w>": 7003,
      "reasonable</w>": 7004,
      "michigan</w>": 7005,
      "53</w>": 7006,
      "md</w>": 7007,
      "wer": 7008,
      "anthro": 7009,
      "remember": 7010,
      "alz": 7011,
      "dir": 7012,
      "split</w>": 7013,
      "quit": 7014,
      "mete": 7015,
      "meals</w>": 7016,
      "offices</w>": 7017,
      "fathers</w>": 7018,
      "charter</w>": 7019,
      "processing</w>": 7020,
      "voy": 7021,
      "dependent</w>": 7022,
      "anne</w>": 7023,
      "ashes</w>": 7024,
      "horiz": 7025,
      "drome</w>": 7026,
      "spoken</w>": 7027,
      "waiting</w>": 7028,
      "grief</w>": 7029,
      "biography</w>": 7030,
      "interpretation</w>": 7031,
      "sharp</w>": 7032,
      "sentences</w>": 7033,
      "'.</w>": 7034,
      "hang": 7035,
      "jan</w>": 7036,
      "lakes</w>": 7037,
      "mice</w>": 7038,
      "och": 7039,
      "inch</w>": 7040,
      "not": 7041,
      "plom": 7042,
      "ported</w>": 7043,
      "recru": 7044,
      "creatures</w>": 7045,
      "angle</w>": 7046,
      "historian</w>": 7047,
      "invasion</w>": 7048,
      "reads</w>": 7049,
      "muscles</w>": 7050,
      "volcan": 7051,
      "considering</w>": 7052,
      "researcher</w>": 7053,
      "malaria</w>": 7054,
      "estimate</w>": 7055,
      "photos</w>": 7056,
      "munici": 7057,
      "defeat</w>": 7058,
      "coffee</w>": 7059,
      "4th</w>": 7060,
      "dil": 7061,
      "dum": 7062,
      "pesti": 7063,
      "tted</w>": 7064,
      "xon</w>": 7065,
      "throw</w>": 7066,
      "rela": 7067,
      "reign</w>": 7068,
      "tied</w>": 7069,
      "dialogue</w>": 7070,
      "diplom": 7071,
      "leg</w>": 7072,
      "coni</w>": 7073,
      "agent</w>": 7074,
      "worry</w>": 7075,
      "braz": 7076,
      "tens</w>": 7077,
      "tention</w>": 7078,
      "examined</w>": 7079,
      "icious</w>": 7080,
      "icians</w>": 7081,
      "medium</w>": 7082,
      "properties</w>": 7083,
      "connections</w>": 7084,
      "woods</w>": 7085,
      "reduction</w>": 7086,
      "demonstrated</w>": 7087,
      "composed</w>": 7088,
      "conveni": 7089,
      "elementary</w>": 7090,
      "ling": 7091,
      "yu": 7092,
      "yan</w>": 7093,
      "aska</w>": 7094,
      "assistant</w>": 7095,
      "concrete</w>": 7096,
      "apagos</w>": 7097,
      "grants</w>": 7098,
      "grass</w>": 7099,
      "metal</w>": 7100,
      "poet</w>": 7101,
      "gifts</w>": 7102,
      "puts</w>": 7103,
      "gel</w>": 7104,
      "steel</w>": 7105,
      "cuts</w>": 7106,
      "breed</w>": 7107,
      "writings</w>": 7108,
      "approaches</w>": 7109,
      "plane</w>": 7110,
      "placement</w>": 7111,
      "denied</w>": 7112,
      "titudes</w>": 7113,
      "realized</w>": 7114,
      "sheet</w>": 7115,
      "psychological</w>": 7116,
      "galapagos</w>": 7117,
      "sandy</w>": 7118,
      "accident</w>": 7119,
      "delivered</w>": 7120,
      "dating</w>": 7121,
      "scr": 7122,
      "ini</w>": 7123,
      "enforc": 7124,
      "acknowle": 7125,
      "thee</w>": 7126,
      "sures</w>": 7127,
      "suitable</w>": 7128,
      "pled</w>": 7129,
      "steam</w>": 7130,
      "craf": 7131,
      "1993</w>": 7132,
      "handed</w>": 7133,
      "careful</w>": 7134,
      "dynasty</w>": 7135,
      "symb": 7136,
      "deeply</w>": 7137,
      "difficulties</w>": 7138,
      ".]</w>": 7139,
      "73</w>": 7140,
      "jum": 7141,
      "tless</w>": 7142,
      "testim": 7143,
      "vs</w>": 7144,
      "infer": 7145,
      "ouse</w>": 7146,
      "ambi": 7147,
      "lic</w>": 7148,
      "abs": 7149,
      "shops</w>": 7150,
      "discover</w>": 7151,
      "marconi</w>": 7152,
      "facil": 7153,
      "eller</w>": 7154,
      "efly</w>": 7155,
      "voters</w>": 7156,
      "musical</w>": 7157,
      "physics</w>": 7158,
      "improvement</w>": 7159,
      "inions</w>": 7160,
      "traveled</w>": 7161,
      "estimates</w>": 7162,
      "indicated</w>": 7163,
      "30": 7164,
      "ball": 7165,
      "dged</w>": 7166,
      "hem": 7167,
      "kill": 7168,
      "pen</w>": 7169,
      "rand": 7170,
      "sop": 7171,
      "wounded</w>": 7172,
      "intim": 7173,
      "atom": 7174,
      "aming</w>": 7175,
      "suit</w>": 7176,
      "comment</w>": 7177,
      "totally</w>": 7178,
      "recy": 7179,
      "common": 7180,
      "carson</w>": 7181,
      "output</w>": 7182,
      "anywhere</w>": 7183,
      "stores</w>": 7184,
      "christianity</w>": 7185,
      "contribution</w>": 7186,
      "supports</w>": 7187,
      "welcome</w>": 7188,
      "expanded</w>": 7189,
      "bury</w>": 7190,
      "revi": 7191,
      "remov": 7192,
      "atively</w>": 7193,
      "trum": 7194,
      "clas": 7195,
      "ella</w>": 7196,
      "relate</w>": 7197,
      "harm</w>": 7198,
      "hardly</w>": 7199,
      "signal</w>": 7200,
      "hole</w>": 7201,
      "temporary</w>": 7202,
      "continuing</w>": 7203,
      "define</w>": 7204,
      "dark": 7205,
      "behaviors</w>": 7206,
      "remote</w>": 7207,
      "repeated</w>": 7208,
      "wooden</w>": 7209,
      "translated</w>": 7210,
      "adapted</w>": 7211,
      "syria</w>": 7212,
      "observations</w>": 7213,
      "smart</w>": 7214,
      "faith": 7215,
      "jefferson</w>": 7216,
      "television</w>": 7217,
      "file</w>": 7218,
      "’.</w>": 7219,
      "inspec": 7220,
      "resem": 7221,
      "returning</w>": 7222,
      "iss</w>": 7223,
      "isation</w>": 7224,
      "theat": 7225,
      "amend": 7226,
      "apost": 7227,
      "iding</w>": 7228,
      "pron": 7229,
      "entitled</w>": 7230,
      "critics</w>": 7231,
      "tenance</w>": 7232,
      "shift</w>": 7233,
      "rowing</w>": 7234,
      "prize</w>": 7235,
      "frame": 7236,
      "harmon": 7237,
      "friday</w>": 7238,
      "spirits</w>": 7239,
      "jane</w>": 7240,
      "physician</w>": 7241,
      "conservative</w>": 7242,
      "devoted</w>": 7243,
      "prophet</w>": 7244,
      "%.</w>": 7245,
      "nol": 7246,
      "rd</w>": 7247,
      "thes</w>": 7248,
      "oning</w>": 7249,
      "chain</w>": 7250,
      "seas</w>": 7251,
      "plying</w>": 7252,
      "ffs</w>": 7253,
      "west": 7254,
      "fire": 7255,
      "fixed</w>": 7256,
      "aved</w>": 7257,
      "greece</w>": 7258,
      "blacks</w>": 7259,
      "asses</w>": 7260,
      "rent</w>": 7261,
      "underground</w>": 7262,
      "missed</w>": 7263,
      "accum": 7264,
      "eters</w>": 7265,
      "continent</w>": 7266,
      "advent": 7267,
      "everyday</w>": 7268,
      "player</w>": 7269,
      "devast": 7270,
      "dollar</w>": 7271,
      "romans</w>": 7272,
      "fallen</w>": 7273,
      "category</w>": 7274,
      "weekly</w>": 7275,
      "movie</w>": 7276,
      "covenant</w>": 7277,
      "facebook</w>": 7278,
      "muhammad</w>": 7279,
      "pestici": 7280,
      "77</w>": 7281,
      "dal</w>": 7282,
      "yers</w>": 7283,
      "hay": 7284,
      "apparent</w>": 7285,
      "tering</w>": 7286,
      "cloud</w>": 7287,
      "20s</w>": 7288,
      "counties</w>": 7289,
      "steph": 7290,
      "outcomes</w>": 7291,
      "camps</w>": 7292,
      "stroke</w>": 7293,
      "contributions</w>": 7294,
      "lyn": 7295,
      "layer</w>": 7296,
      "judgment</w>": 7297,
      "vessel</w>": 7298,
      "hospitals</w>": 7299,
      "2nd</w>": 7300,
      "cus</w>": 7301,
      "gates</w>": 7302,
      "gaz": 7303,
      "io</w>": 7304,
      "mi</w>": 7305,
      "mere</w>": 7306,
      "soph": 7307,
      "inary</w>": 7308,
      "theore": 7309,
      "extra": 7310,
      "qualities</w>": 7311,
      "discover": 7312,
      "tech</w>": 7313,
      "crus": 7314,
      "cathe": 7315,
      "cular</w>": 7316,
      "evident</w>": 7317,
      "sales</w>": 7318,
      "statements</w>": 7319,
      "defend": 7320,
      "sils</w>": 7321,
      "purchased</w>": 7322,
      "avier</w>": 7323,
      "surprised</w>": 7324,
      "archives</w>": 7325,
      "healthcare</w>": 7326,
      "friendly</w>": 7327,
      "corruption</w>": 7328,
      "alzheimer</w>": 7329,
      "dit": 7330,
      "ky": 7331,
      "kir": 7332,
      "session</w>": 7333,
      "yland</w>": 7334,
      "ins": 7335,
      "illi": 7336,
      "chair": 7337,
      "league</w>": 7338,
      "partly</w>": 7339,
      "portr": 7340,
      "gust": 7341,
      "faction</w>": 7342,
      "substitu": 7343,
      "accused</w>": 7344,
      "harder</w>": 7345,
      "breeding</w>": 7346,
      "barri": 7347,
      "associate</w>": 7348,
      "treatments</w>": 7349,
      "partners</w>": 7350,
      "thereby</w>": 7351,
      "determination</w>": 7352,
      "commission": 7353,
      "perfec": 7354,
      "syndrome</w>": 7355,
      "narrow</w>": 7356,
      "procedure</w>": 7357,
      "decrease</w>": 7358,
      "judicial</w>": 7359,
      "59</w>": 7360,
      "72</w>": 7361,
      "bap": 7362,
      "dall": 7363,
      "nest</w>": 7364,
      "sas</w>": 7365,
      "vi</w>": 7366,
      "then": 7367,
      "revel": 7368,
      "arab</w>": 7369,
      "alties</w>": 7370,
      "amino</w>": 7371,
      "abled</w>": 7372,
      "condem": 7373,
      "osy": 7374,
      "exclud": 7375,
      "tra</w>": 7376,
      "decreas": 7377,
      "transfer</w>": 7378,
      "initiative</w>": 7379,
      "mentation</w>": 7380,
      "thank</w>": 7381,
      "frank</w>": 7382,
      "incident</w>": 7383,
      "substantial</w>": 7384,
      "pediat": 7385,
      "rhyth": 7386,
      "pakistan</w>": 7387,
      "daniel</w>": 7388,
      "54</w>": 7389,
      "63</w>": 7390,
      "yard</w>": 7391,
      "infin": 7392,
      "ert</w>": 7393,
      "resolution</w>": 7394,
      "entry</w>": 7395,
      "ongoing</w>": 7396,
      "unlikely</w>": 7397,
      "sugg": 7398,
      "exists</w>": 7399,
      "col</w>": 7400,
      "mix</w>": 7401,
      "natives</w>": 7402,
      "acces": 7403,
      "burned</w>": 7404,
      "1991</w>": 7405,
      "holes</w>": 7406,
      "glory</w>": 7407,
      "toral</w>": 7408,
      "request</w>": 7409,
      "transition</w>": 7410,
      "deposits</w>": 7411,
      "superior</w>": 7412,
      "gdp</w>": 7413,
      "hes": 7414,
      "lau": 7415,
      "mm</w>": 7416,
      "tan</w>": 7417,
      "xes</w>": 7418,
      "reci": 7419,
      "till</w>": 7420,
      "loans</w>": 7421,
      "cler": 7422,
      "disrup": 7423,
      "secular</w>": 7424,
      "folk</w>": 7425,
      "votes</w>": 7426,
      "2016</w>": 7427,
      "hung": 7428,
      "tales</w>": 7429,
      "gardens</w>": 7430,
      "reporting</w>": 7431,
      "hopes</w>": 7432,
      "similarly</w>": 7433,
      "privil": 7434,
      "toxic</w>": 7435,
      "kidney</w>": 7436,
      "accompanied</w>": 7437,
      "efully</w>": 7438,
      "acquired</w>": 7439,
      "ix</w>": 7440,
      "otic</w>": 7441,
      "ank</w>": 7442,
      "agan</w>": 7443,
      "comfort</w>": 7444,
      "paras": 7445,
      "ayl": 7446,
      "poems</w>": 7447,
      "proud</w>": 7448,
      "presentation</w>": 7449,
      "poland</w>": 7450,
      "obli": 7451,
      "obser": 7452,
      "warri": 7453,
      "funded</w>": 7454,
      "town": 7455,
      "distant</w>": 7456,
      "recommend": 7457,
      "mechanism</w>": 7458,
      "translation</w>": 7459,
      "----": 7460,
      "conscious</w>": 7461,
      "achievement</w>": 7462,
      "stick</w>": 7463,
      "gospel</w>": 7464,
      "occasionally</w>": 7465,
      "declaration</w>": 7466,
      "descendants</w>": 7467,
      "enormous</w>": 7468,
      "tropical</w>": 7469,
      "orthodox</w>": 7470,
      "framework</w>": 7471,
      "sugges": 7472,
      "99</w>": 7473,
      "bour": 7474,
      "sance</w>": 7475,
      "rejected</w>": 7476,
      "tier</w>": 7477,
      "oman</w>": 7478,
      "shoul": 7479,
      "mann</w>": 7480,
      "fled</w>": 7481,
      "bid</w>": 7482,
      "observe</w>": 7483,
      "generated</w>": 7484,
      "warded</w>": 7485,
      "gged</w>": 7486,
      "forever</w>": 7487,
      "planted</w>": 7488,
      "involvement</w>": 7489,
      "myth": 7490,
      "behaviour</w>": 7491,
      "migration</w>": 7492,
      "engineers</w>": 7493,
      "celebrate</w>": 7494,
      "naval</w>": 7495,
      "quote</w>": 7496,
      "entering</w>": 7497,
      "implications</w>": 7498,
      "instruments</w>": 7499,
      "74</w>": 7500,
      "lanc": 7501,
      "mes": 7502,
      "tasks</w>": 7503,
      "alliance</w>": 7504,
      "icked</w>": 7505,
      "opher</w>": 7506,
      "ound": 7507,
      "ownership</w>": 7508,
      "meet": 7509,
      "earn</w>": 7510,
      "feed": 7511,
      "corps</w>": 7512,
      "societies</w>": 7513,
      "produces</w>": 7514,
      "numer": 7515,
      "bands</w>": 7516,
      "1992</w>": 7517,
      "busy</w>": 7518,
      "infra": 7519,
      "graphical</w>": 7520,
      "foster</w>": 7521,
      "sheep</w>": 7522,
      "murder</w>": 7523,
      "mexican</w>": 7524,
      "harvard</w>": 7525,
      "subsequently</w>": 7526,
      "sacrifice</w>": 7527,
      "aissance</w>": 7528,
      "spaces</w>": 7529,
      "fashion</w>": 7530,
      "impressive</w>": 7531,
      "56</w>": 7532,
      "700</w>": 7533,
      "bb": 7534,
      "cau": 7535,
      "ege</w>": 7536,
      "fting</w>": 7537,
      "hil": 7538,
      "tall</w>": 7539,
      "wan": 7540,
      "ention</w>": 7541,
      "atoes</w>": 7542,
      "hau": 7543,
      "plate</w>": 7544,
      "preserved</w>": 7545,
      "bol</w>": 7546,
      "ticated</w>": 7547,
      "counter</w>": 7548,
      "norwe": 7549,
      "actively</w>": 7550,
      "swim": 7551,
      "reliable</w>": 7552,
      "salv": 7553,
      "establishing</w>": 7554,
      "myth</w>": 7555,
      "lung</w>": 7556,
      "sacred</w>": 7557,
      "ukrain": 7558,
      "monitoring</w>": 7559,
      "!\"</w>": 7560,
      "lap": 7561,
      "wages</w>": 7562,
      "thick</w>": 7563,
      "error</w>": 7564,
      "acu": 7565,
      "isa</w>": 7566,
      "distr": 7567,
      "seed</w>": 7568,
      "opinions</w>": 7569,
      "allah</w>": 7570,
      "turkey</w>": 7571,
      "charts</w>": 7572,
      "ette</w>": 7573,
      "sending</w>": 7574,
      "neck</w>": 7575,
      "2017</w>": 7576,
      "ashed</w>": 7577,
      "incenti": 7578,
      "1979</w>": 7579,
      "good": 7580,
      "interpretant</w>": 7581,
      "fleet</w>": 7582,
      "occasion</w>": 7583,
      "scripture</w>": 7584,
      "surrounded</w>": 7585,
      "camera</w>": 7586,
      "kansas</w>": 7587,
      "skyrim</w>": 7588,
      "las": 7589,
      "pd": 7590,
      "uli": 7591,
      "indon": 7592,
      "stones</w>": 7593,
      "eliz": 7594,
      "abroad</w>": 7595,
      "shut</w>": 7596,
      "bus</w>": 7597,
      "peas": 7598,
      "creates</w>": 7599,
      "duties</w>": 7600,
      "interaction</w>": 7601,
      "gee</w>": 7602,
      "treating</w>": 7603,
      "vol</w>": 7604,
      "stuff</w>": 7605,
      "1985</w>": 7606,
      "perception</w>": 7607,
      "harvest</w>": 7608,
      "scope</w>": 7609,
      "terror": 7610,
      "twentieth</w>": 7611,
      "testimony</w>": 7612,
      "indones": 7613,
      "aer": 7614,
      "thi": 7615,
      "thin</w>": 7616,
      "icks</w>": 7617,
      "chair</w>": 7618,
      "unk</w>": 7619,
      "owed</w>": 7620,
      "pear": 7621,
      "eva</w>": 7622,
      "metab": 7623,
      "lasting</w>": 7624,
      "penn</w>": 7625,
      "criter": 7626,
      "signals</w>": 7627,
      "educators</w>": 7628,
      "maintenance</w>": 7629,
      "responses</w>": 7630,
      "darwin</w>": 7631,
      "evolutionary</w>": 7632,
      "separated</w>": 7633,
      "frequency</w>": 7634,
      "wealthy</w>": 7635,
      "tyr": 7636,
      "personality</w>": 7637,
      "layers</w>": 7638,
      "ancestors</w>": 7639,
      "logical</w>": 7640,
      "physi": 7641,
      "defici": 7642,
      "jackson</w>": 7643,
      "coastal</w>": 7644,
      "87</w>": 7645,
      "bic": 7646,
      "cm</w>": 7647,
      "flies</w>": 7648,
      "lum": 7649,
      "mate</w>": 7650,
      "pig": 7651,
      "pair</w>": 7652,
      "rhe": 7653,
      "sat</w>": 7654,
      "ution": 7655,
      "allied</w>": 7656,
      "ission</w>": 7657,
      "trading</w>": 7658,
      "spino": 7659,
      "preserve</w>": 7660,
      "perpe": 7661,
      "motor": 7662,
      "timber</w>": 7663,
      "monaster": 7664,
      "trem": 7665,
      "tres</w>": 7666,
      "frame</w>": 7667,
      "producers</w>": 7668,
      "dried</w>": 7669,
      "1964</w>": 7670,
      "emerged</w>": 7671,
      "races</w>": 7672,
      "symbol</w>": 7673,
      "payments</w>": 7674,
      "profession": 7675,
      "zero</w>": 7676,
      "reputation</w>": 7677,
      "classic</w>": 7678,
      "ds": 7679,
      "’,</w>": 7680,
      "ecosy": 7681,
      "noon</w>": 7682,
      "propor": 7683,
      "sured</w>": 7684,
      "ingham</w>": 7685,
      "mont</w>": 7686,
      "dress</w>": 7687,
      "rick</w>": 7688,
      "quito</w>": 7689,
      "exception</w>": 7690,
      "fox</w>": 7691,
      "engineer</w>": 7692,
      "listening</w>": 7693,
      "distributed</w>": 7694,
      "otto</w>": 7695,
      "lifetime</w>": 7696,
      "manufacturers</w>": 7697,
      "pleasure</w>": 7698,
      "portugu": 7699,
      "removal</w>": 7700,
      "69</w>": 7701,
      "ean</w>": 7702,
      "saul</w>": 7703,
      "that": 7704,
      "resting</w>": 7705,
      "attitudes</w>": 7706,
      "liquid</w>": 7707,
      "proven</w>": 7708,
      "termin": 7709,
      "mode</w>": 7710,
      "poc": 7711,
      "pro</w>": 7712,
      "blu": 7713,
      "cap</w>": 7714,
      "shakes": 7715,
      "responsib": 7716,
      "excess</w>": 7717,
      "farmer</w>": 7718,
      "choos": 7719,
      "artificial</w>": 7720,
      "situated</w>": 7721,
      "1930s</w>": 7722,
      "1950s</w>": 7723,
      "addressed</w>": 7724,
      "scenari": 7725,
      "personnel</w>": 7726,
      "possession</w>": 7727,
      "innovation</w>": 7728,
      "episo": 7729,
      "absence</w>": 7730,
      "cathedr": 7731,
      "portuguese</w>": 7732,
      "shakespe": 7733,
      "cited</w>": 7734,
      "fate</w>": 7735,
      "jr</w>": 7736,
      "mp</w>": 7737,
      "nt</w>": 7738,
      "sday</w>": 7739,
      "zer</w>": 7740,
      "ora</w>": 7741,
      "itations</w>": 7742,
      "ride</w>": 7743,
      "beef</w>": 7744,
      "admitted</w>": 7745,
      "semi": 7746,
      "embar": 7747,
      "compris": 7748,
      "ira": 7749,
      "shr": 7750,
      "persu": 7751,
      "desper": 7752,
      "turing</w>": 7753,
      "priest</w>": 7754,
      "underlying</w>": 7755,
      "thinks</w>": 7756,
      "pier": 7757,
      "juven": 7758,
      "window</w>": 7759,
      "founding</w>": 7760,
      "influential</w>": 7761,
      "blocks</w>": 7762,
      "jersey</w>": 7763,
      "chicken</w>": 7764,
      "doctrine</w>": 7765,
      "spinoza</w>": 7766,
      "].</w>": 7767,
      "clock</w>": 7768,
      "eb": 7769,
      "pill": 7770,
      "wrec": 7771,
      "antry</w>": 7772,
      "itter</w>": 7773,
      "bed": 7774,
      "worn</w>": 7775,
      "gover": 7776,
      "co2</w>": 7777,
      "teams</w>": 7778,
      "fires</w>": 7779,
      "colour</w>": 7780,
      "factor": 7781,
      "finance</w>": 7782,
      "ram</w>": 7783,
      "wives</w>": 7784,
      "missour": 7785,
      "pipel": 7786,
      "examination</w>": 7787,
      "expand</w>": 7788,
      "striking</w>": 7789,
      "transferred</w>": 7790,
      "victim</w>": 7791,
      "singing</w>": 7792,
      "1965</w>": 7793,
      "surviv": 7794,
      "stomach</w>": 7795,
      "rabbi</w>": 7796,
      "infrastructure</w>": 7797,
      "84</w>": 7798,
      "cell": 7799,
      "istry</w>": 7800,
      "nate</w>": 7801,
      "wake</w>": 7802,
      "instru": 7803,
      "rid</w>": 7804,
      "composition</w>": 7805,
      "negl": 7806,
      "ulty</w>": 7807,
      "1918</w>": 7808,
      "idity</w>": 7809,
      "fur</w>": 7810,
      "criticism</w>": 7811,
      "ship": 7812,
      "visiting</w>": 7813,
      "charges</w>": 7814,
      "outbreak</w>": 7815,
      "hero</w>": 7816,
      "overcome</w>": 7817,
      "consideration</w>": 7818,
      "1989</w>": 7819,
      "answered</w>": 7820,
      "pull</w>": 7821,
      "experimental</w>": 7822,
      "celebration</w>": 7823,
      "distinction</w>": 7824,
      "thouse</w>": 7825,
      "guns</w>": 7826,
      "harmful</w>": 7827,
      "convinced</w>": 7828,
      "chromos": 7829,
      "missouri</w>": 7830,
      "instrument</w>": 7831,
      "93</w>": 7832,
      "etery</w>": 7833,
      "flower</w>": 7834,
      "pound</w>": 7835,
      "push</w>": 7836,
      "ende": 7837,
      "enable</w>": 7838,
      "consen": 7839,
      "proportion</w>": 7840,
      "oppon": 7841,
      "interview</w>": 7842,
      "monitor</w>": 7843,
      "belong</w>": 7844,
      "igno": 7845,
      "invited</w>": 7846,
      "differently</w>": 7847,
      "mature</w>": 7848,
      "clothes</w>": 7849,
      "antine</w>": 7850,
      "awa</w>": 7851,
      "followers</w>": 7852,
      "exploration</w>": 7853,
      "relatives</w>": 7854,
      "hoped</w>": 7855,
      "1980</w>": 7856,
      "chemistry</w>": 7857,
      "genetics</w>": 7858,
      "moments</w>": 7859,
      "challenging</w>": 7860,
      "prisoner</w>": 7861,
      "gathering</w>": 7862,
      "autonom": 7863,
      "aggressive</w>": 7864,
      "peaceful</w>": 7865,
      "juris": 7866,
      "cemetery</w>": 7867,
      "irrigation</w>": 7868,
      "extraordinary</w>": 7869,
      "',</w>": 7870,
      "este": 7871,
      "mt</w>": 7872,
      "masters</w>": 7873,
      "inju": 7874,
      "reserved</w>": 7875,
      "tians</w>": 7876,
      "stems</w>": 7877,
      "isely</w>": 7878,
      "when": 7879,
      "ried</w>": 7880,
      "notable</w>": 7881,
      "plu": 7882,
      "prey</w>": 7883,
      "earned</w>": 7884,
      "assa": 7885,
      "spectr": 7886,
      "hunt</w>": 7887,
      "profits</w>": 7888,
      "everywhere</w>": 7889,
      "defend</w>": 7890,
      "sequence</w>": 7891,
      "argues</w>": 7892,
      "psychi": 7893,
      "imagination</w>": 7894,
      "flexi": 7895,
      "seconds</w>": 7896,
      "manipul": 7897,
      "bureau</w>": 7898,
      "photographs</w>": 7899,
      "amendment</w>": 7900,
      "\")</w>": 7901,
      "57</w>": 7902,
      "71</w>": 7903,
      "aud": 7904,
      "gaining</w>": 7905,
      "hr": 7906,
      "tent</w>": 7907,
      "recip": 7908,
      "alga": 7909,
      "attered</w>": 7910,
      "escap": 7911,
      "asth": 7912,
      "lieu": 7913,
      "abstr": 7914,
      "deal": 7915,
      "forgotten</w>": 7916,
      "string</w>": 7917,
      "aired</w>": 7918,
      "presents</w>": 7919,
      "ttes</w>": 7920,
      "super</w>": 7921,
      "maintaining</w>": 7922,
      "school": 7923,
      "wales</w>": 7924,
      "paintings</w>": 7925,
      "reflected</w>": 7926,
      "daughters</w>": 7927,
      "officially</w>": 7928,
      "bomb</w>": 7929,
      "kitchen</w>": 7930,
      "terrible</w>": 7931,
      "cav": 7932,
      "etr": 7933,
      "ni</w>": 7934,
      "saving</w>": 7935,
      "intake</w>": 7936,
      "endu": 7937,
      "dimin": 7938,
      "leaf</w>": 7939,
      "depar": 7940,
      "firms</w>": 7941,
      "threats</w>": 7942,
      "developments</w>": 7943,
      "collective</w>": 7944,
      "origins</w>": 7945,
      "17th</w>": 7946,
      "protecting</w>": 7947,
      "lux": 7948,
      "precisely</w>": 7949,
      "payment</w>": 7950,
      "junc": 7951,
      "attracted</w>": 7952,
      "wednes": 7953,
      "chester</w>": 7954,
      "restoration</w>": 7955,
      "psychiat": 7956,
      "03</w>": 7957,
      "67</w>": 7958,
      "blow": 7959,
      "bail": 7960,
      "gence</w>": 7961,
      "rays</w>": 7962,
      "sri</w>": 7963,
      "ymp": 7964,
      "thrown</w>": 7965,
      "tible</w>": 7966,
      "ari</w>": 7967,
      "seem": 7968,
      "sper": 7969,
      "grave</w>": 7970,
      "maryland</w>": 7971,
      "gens</w>": 7972,
      "courage</w>": 7973,
      "legacy</w>": 7974,
      "young": 7975,
      "annually</w>": 7976,
      "winning</w>": 7977,
      "partnership</w>": 7978,
      "necessity</w>": 7979,
      "colonel</w>": 7980,
      "rank</w>": 7981,
      "acids</w>": 7982,
      "acceptable</w>": 7983,
      "louis": 7984,
      "documented</w>": 7985,
      "retired</w>": 7986,
      "sophis": 7987,
      "chairman</w>": 7988,
      "meetings</w>": 7989,
      "58</w>": 7990,
      "fon": 7991,
      "jen": 7992,
      "mly</w>": 7993,
      "phe": 7994,
      "si</w>": 7995,
      "vements</w>": 7996,
      "erected</w>": 7997,
      "sional</w>": 7998,
      "versions</w>": 7999,
      "peti": 8000,
      "godd": 8001,
      "coali": 8002,
      "marke": 8003,
      "bra</w>": 8004,
      "brand</w>": 8005,
      "aller": 8006,
      "storms</w>": 8007,
      "pole</w>": 8008,
      "submitted</w>": 8009,
      "virtual</w>": 8010,
      "collecting</w>": 8011,
      "horn</w>": 8012,
      "transcrip": 8013,
      "physically</w>": 8014,
      "currency</w>": 8015,
      "anticip": 8016,
      "random</w>": 8017,
      "reflection</w>": 8018,
      "flows</w>": 8019,
      "exhibition</w>": 8020,
      "restrictions</w>": 8021,
      "surprising</w>": 8022,
      "radical</w>": 8023,
      "weigh": 8024,
      "arabic</w>": 8025,
      "isolated</w>": 8026,
      "channel</w>": 8027,
      "thursday</w>": 8028,
      "shakespeare</w>": 8029,
      "injured</w>": 8030,
      "wednesday</w>": 8031,
      ",'</w>": 8032,
      "68</w>": 8033,
      "eable</w>": 8034,
      "mits</w>": 8035,
      "mates</w>": 8036,
      "pi</w>": 8037,
      "pace</w>": 8038,
      "tale</w>": 8039,
      "accom": 8040,
      "oma</w>": 8041,
      "shouldn</w>": 8042,
      "buff": 8043,
      "permitted</w>": 8044,
      "moves</w>": 8045,
      "boards</w>": 8046,
      "teens</w>": 8047,
      "genu": 8048,
      "colleg": 8049,
      "miller</w>": 8050,
      "priests</w>": 8051,
      "basin</w>": 8052,
      "alid</w>": 8053,
      "fertili": 8054,
      "excav": 8055,
      "planes</w>": 8056,
      "experiencing</w>": 8057,
      "depend</w>": 8058,
      "register</w>": 8059,
      "chocol": 8060,
      "explic": 8061,
      "involve</w>": 8062,
      "walked</w>": 8063,
      "improvements</w>": 8064,
      "antibio": 8065,
      "circles</w>": 8066,
      "preventing</w>": 8067,
      "extension</w>": 8068,
      "deliver</w>": 8069,
      "sweet</w>": 8070,
      "demonstrate</w>": 8071,
      "advantages</w>": 8072,
      "objective</w>": 8073,
      "southwest</w>": 8074,
      "rebellion</w>": 8075,
      "minerals</w>": 8076,
      "aylor</w>": 8077,
      "algae</w>": 8078,
      "cal</w>": 8079,
      "dwar": 8080,
      "score</w>": 8081,
      "tour</w>": 8082,
      "tude</w>": 8083,
      "von</w>": 8084,
      "roe</w>": 8085,
      "eler": 8086,
      "whi": 8087,
      "chol": 8088,
      "habit</w>": 8089,
      "performing</w>": 8090,
      "clay</w>": 8091,
      "1950</w>": 8092,
      "miners</w>": 8093,
      "prescri": 8094,
      "colored</w>": 8095,
      "curi": 8096,
      "invented</w>": 8097,
      "rendered</w>": 8098,
      "lining</w>": 8099,
      "speaker</w>": 8100,
      "patch</w>": 8101,
      "ickness</w>": 8102,
      "1945</w>": 8103,
      "citizen": 8104,
      "consequence</w>": 8105,
      "customers</w>": 8106,
      "passion</w>": 8107,
      "occupation</w>": 8108,
      "physicians</w>": 8109,
      "guilty</w>": 8110,
      "tragedy</w>": 8111,
      "inquiry</w>": 8112,
      "buddh": 8113,
      "mixture</w>": 8114,
      "harbor</w>": 8115,
      "measurements</w>": 8116,
      "professionals</w>": 8117,
      "cathedral</w>": 8118,
      "colleges</w>": 8119,
      "5th</w>": 8120,
      "88</w>": 8121,
      "day": 8122,
      "gross</w>": 8123,
      "mai": 8124,
      "oke</w>": 8125,
      "pir": 8126,
      "thy": 8127,
      "ret": 8128,
      "replace</w>": 8129,
      "restore</w>": 8130,
      "ung</w>": 8131,
      "premi": 8132,
      "brains</w>": 8133,
      "blind</w>": 8134,
      "guess</w>": 8135,
      "select</w>": 8136,
      "flour": 8137,
      "kee</w>": 8138,
      "tension</w>": 8139,
      "missions</w>": 8140,
      "alike</w>": 8141,
      "acceler": 8142,
      "borders</w>": 8143,
      "anna</w>": 8144,
      "picked</w>": 8145,
      "mosquito</w>": 8146,
      "influences</w>": 8147,
      "grades</w>": 8148,
      "manager</w>": 8149,
      "provincial</w>": 8150,
      "correctly</w>": 8151,
      "fortunate</w>": 8152,
      "soldier</w>": 8153,
      "afterwards</w>": 8154,
      "guidance</w>": 8155,
      "virtue</w>": 8156,
      "transmission</w>": 8157,
      "crowd</w>": 8158,
      "beneath</w>": 8159,
      "accomplished</w>": 8160,
      "mystery</w>": 8161,
      "procedures</w>": 8162,
      "phrase</w>": 8163,
      "attraction</w>": 8164,
      "hurricane</w>": 8165,
      "enforcement</w>": 8166,
      "accessible</w>": 8167,
      "whenever</w>": 8168,
      "bond</w>": 8169,
      "cup</w>": 8170,
      "juni": 8171,
      "jones</w>": 8172,
      "vent": 8173,
      "ania</w>": 8174,
      "liv": 8175,
      "rists</w>": 8176,
      "bet</w>": 8177,
      "export</w>": 8178,
      "plastic</w>": 8179,
      "parkinson</w>": 8180,
      "1914</w>": 8181,
      "arer</w>": 8182,
      "hei": 8183,
      "tues": 8184,
      "cave</w>": 8185,
      "exciting</w>": 8186,
      "artistic</w>": 8187,
      "1970</w>": 8188,
      "traveling</w>": 8189,
      "communications</w>": 8190,
      "exercises</w>": 8191,
      "scenes</w>": 8192,
      "psychology</w>": 8193,
      "manife": 8194,
      "modified</w>": 8195,
      "distinguished</w>": 8196,
      "arguments</w>": 8197,
      "mortality</w>": 8198,
      "clouds</w>": 8199,
      "darkness</w>": 8200,
      "250</w>": 8201,
      "3rd</w>": 8202,
      "83</w>": 8203,
      "92</w>": 8204,
      "hud": 8205,
      "intr": 8206,
      "rogen</w>": 8207,
      "assets</w>": 8208,
      "among": 8209,
      "nobody</w>": 8210,
      "surely</w>": 8211,
      "afraid</w>": 8212,
      "recre": 8213,
      "lowest</w>": 8214,
      "polar</w>": 8215,
      "asted</w>": 8216,
      "shipping</w>": 8217,
      "providers</w>": 8218,
      "cloth</w>": 8219,
      "ician</w>": 8220,
      "germans</w>": 8221,
      "burgh</w>": 8222,
      "shapes</w>": 8223,
      "speaks</w>": 8224,
      "operators</w>": 8225,
      "coverage</w>": 8226,
      "settle</w>": 8227,
      "cheap</w>": 8228,
      "protest": 8229,
      "legislative</w>": 8230,
      "hurt</w>": 8231,
      "railway</w>": 8232,
      "suspect</w>": 8233,
      "membership</w>": 8234,
      "component</w>": 8235,
      "perfectly</w>": 8236,
      "81</w>": 8237,
      "cand": 8238,
      "dams</w>": 8239,
      "gical</w>": 8240,
      "hec": 8241,
      "kat": 8242,
      "vak": 8243,
      "reserv": 8244,
      "roles</w>": 8245,
      "log</w>": 8246,
      "loaded</w>": 8247,
      "behalf</w>": 8248,
      "uled</w>": 8249,
      "ground": 8250,
      "met": 8251,
      "1917</w>": 8252,
      "disability</w>": 8253,
      "fiber</w>": 8254,
      "contain": 8255,
      "feels</w>": 8256,
      "declined</w>": 8257,
      "assist</w>": 8258,
      "traditionally</w>": 8259,
      "burden</w>": 8260,
      "publishing</w>": 8261,
      "copies</w>": 8262,
      "carries</w>": 8263,
      "castleton</w>": 8264,
      "witness</w>": 8265,
      "consequently</w>": 8266,
      "instructions</w>": 8267,
      "customs</w>": 8268,
      "asive</w>": 8269,
      "beneficial</w>": 8270,
      "sacrific": 8271,
      "attributed</w>": 8272,
      "inspiration</w>": 8273,
      "mammals</w>": 8274,
      "cep": 8275,
      "hook</w>": 8276,
      "nin": 8277,
      "sake</w>": 8278,
      "tone</w>": 8279,
      "wa</w>": 8280,
      "thood</w>": 8281,
      "ela</w>": 8282,
      "eland</w>": 8283,
      "dioxide</w>": 8284,
      "bey</w>": 8285,
      "sub</w>": 8286,
      "adams</w>": 8287,
      "need": 8288,
      "aka</w>": 8289,
      "pets</w>": 8290,
      "wet</w>": 8291,
      "cooperation</w>": 8292,
      "auto": 8293,
      "mild</w>": 8294,
      "engagement</w>": 8295,
      "observation</w>": 8296,
      "rison</w>": 8297,
      "learners</w>": 8298,
      "warr": 8299,
      "excited</w>": 8300,
      "glaci": 8301,
      "egg</w>": 8302,
      "moderate</w>": 8303,
      "tanks</w>": 8304,
      "1963</w>": 8305,
      "cyber": 8306,
      "daries</w>": 8307,
      "panic</w>": 8308,
      "contradic": 8309,
      "keeps</w>": 8310,
      "repair</w>": 8311,
      "pilot</w>": 8312,
      "boundaries</w>": 8313,
      "immigrants</w>": 8314,
      "prophe": 8315,
      "incorporated</w>": 8316,
      "elephant</w>": 8317,
      "elizab": 8318,
      "chocolate</w>": 8319,
      "tuesday</w>": 8320,
      "amongst</w>": 8321,
      ".|</w>": 8322,
      "cous": 8323,
      "ees</w>": 8324,
      "fati": 8325,
      "fred</w>": 8326,
      "lecture</w>": 8327,
      "pac": 8328,
      "pan</w>": 8329,
      "paw": 8330,
      "rings</w>": 8331,
      "snow": 8332,
      "wings</w>": 8333,
      "insight</w>": 8334,
      "lists</w>": 8335,
      "uncle</w>": 8336,
      "usage</w>": 8337,
      "bean</w>": 8338,
      "tril": 8339,
      "spid": 8340,
      "prefer": 8341,
      "greeks</w>": 8342,
      "feat": 8343,
      "descent</w>": 8344,
      "pride</w>": 8345,
      "dra</w>": 8346,
      "strikes</w>": 8347,
      "hero": 8348,
      "book": 8349,
      "settings</w>": 8350,
      "dangers</w>": 8351,
      "promising</w>": 8352,
      "cathol": 8353,
      "campaign": 8354,
      "sixth</w>": 8355,
      "legend</w>": 8356,
      "pushed</w>": 8357,
      "scheme</w>": 8358,
      "sovereign": 8359,
      "guru</w>": 8360,
      "coalition</w>": 8361,
      "cure</w>": 8362,
      "ios</w>": 8363,
      "nes</w>": 8364,
      "tough</w>": 8365,
      "ena</w>": 8366,
      "ich": 8367,
      "iles</w>": 8368,
      "cia</w>": 8369,
      "preferred</w>": 8370,
      "gram</w>": 8371,
      "mankind</w>": 8372,
      "1919</w>": 8373,
      "bron": 8374,
      "monetary</w>": 8375,
      "attor": 8376,
      "rics</w>": 8377,
      "ttle</w>": 8378,
      "landing</w>": 8379,
      "quiet</w>": 8380,
      "outcome</w>": 8381,
      "updated</w>": 8382,
      "vented</w>": 8383,
      "holders</w>": 8384,
      "juli": 8385,
      "endor": 8386,
      "mounted</w>": 8387,
[...]
